{
  "version": "1.0",
  "truncation": null,
  "padding": null,
  "added_tokens": [
    {
      "id": 0,
      "content": "<PAD>",
      "single_word": false,
      "lstrip": false,
      "rstrip": false,
      "normalized": false,
      "special": true
    },
    {
      "id": 1,
      "content": "<SOS>",
      "single_word": false,
      "lstrip": false,
      "rstrip": false,
      "normalized": false,
      "special": true
    },
    {
      "id": 2,
      "content": "<EOS>",
      "single_word": false,
      "lstrip": false,
      "rstrip": false,
      "normalized": false,
      "special": true
    },
    {
      "id": 3,
      "content": "<UNK>",
      "single_word": false,
      "lstrip": false,
      "rstrip": false,
      "normalized": false,
      "special": true
    }
  ],
  "normalizer": {
    "type": "Sequence",
    "normalizers": [
      {
        "type": "NFKC"
      },
      {
        "type": "Lowercase"
      }
    ]
  },
  "pre_tokenizer": {
    "type": "Metaspace",
    "replacement": " ",
    "prepend_scheme": "always",
    "split": true
  },
  "post_processor": {
    "type": "TemplateProcessing",
    "single": [
      {
        "SpecialToken": {
          "id": "<SOS>",
          "type_id": 0
        }
      },
      {
        "Sequence": {
          "id": "A",
          "type_id": 0
        }
      },
      {
        "SpecialToken": {
          "id": "<EOS>",
          "type_id": 0
        }
      }
    ],
    "pair": [
      {
        "Sequence": {
          "id": "A",
          "type_id": 0
        }
      },
      {
        "Sequence": {
          "id": "B",
          "type_id": 1
        }
      }
    ],
    "special_tokens": {
      "<EOS>": {
        "id": "<EOS>",
        "ids": [
          2
        ],
        "tokens": [
          "<EOS>"
        ]
      },
      "<SOS>": {
        "id": "<SOS>",
        "ids": [
          1
        ],
        "tokens": [
          "<SOS>"
        ]
      }
    }
  },
  "decoder": {
    "type": "Sequence",
    "decoders": [
      {
        "type": "BPEDecoder",
        "suffix": "</w>"
      },
      {
        "type": "Metaspace",
        "replacement": " ",
        "prepend_scheme": "always",
        "split": true
      }
    ]
  },
  "model": {
    "type": "BPE",
    "dropout": null,
    "unk_token": "<UNK>",
    "continuing_subword_prefix": null,
    "end_of_word_suffix": null,
    "fuse_unk": false,
    "byte_fallback": false,
    "ignore_merges": false,
    "vocab": {
      "<PAD>": 0,
      "<SOS>": 1,
      "<EOS>": 2,
      "<UNK>": 3,
      "\u0001": 4,
      "\u0003": 5,
      "\u0004": 6,
      "\b": 7,
      "\n": 8,
      "\u000f": 9,
      "\u0013": 10,
      " ": 11,
      "!": 12,
      "\"": 13,
      "#": 14,
      "$": 15,
      "%": 16,
      "&": 17,
      "'": 18,
      "(": 19,
      ")": 20,
      "*": 21,
      "+": 22,
      ",": 23,
      "-": 24,
      ".": 25,
      "/": 26,
      "0": 27,
      "1": 28,
      "2": 29,
      "3": 30,
      "4": 31,
      "5": 32,
      "6": 33,
      "7": 34,
      "8": 35,
      "9": 36,
      ":": 37,
      ";": 38,
      "<": 39,
      "=": 40,
      ">": 41,
      "?": 42,
      "@": 43,
      "[": 44,
      "\\": 45,
      "]": 46,
      "^": 47,
      "_": 48,
      "`": 49,
      "a": 50,
      "b": 51,
      "c": 52,
      "d": 53,
      "e": 54,
      "f": 55,
      "g": 56,
      "h": 57,
      "i": 58,
      "j": 59,
      "k": 60,
      "l": 61,
      "m": 62,
      "n": 63,
      "o": 64,
      "p": 65,
      "q": 66,
      "r": 67,
      "s": 68,
      "t": 69,
      "u": 70,
      "v": 71,
      "w": 72,
      "x": 73,
      "y": 74,
      "z": 75,
      "{": 76,
      "|": 77,
      "}": 78,
      "~": 79,
      "": 80,
      "": 81,
      "": 82,
      "": 83,
      "": 84,
      "¡": 85,
      "£": 86,
      "¥": 87,
      "§": 88,
      "©": 89,
      "«": 90,
      "¬": 91,
      "­": 92,
      "®": 93,
      "°": 94,
      "±": 95,
      "·": 96,
      "»": 97,
      "¿": 98,
      "×": 99,
      "ß": 100,
      "à": 101,
      "á": 102,
      "â": 103,
      "ã": 104,
      "ä": 105,
      "å": 106,
      "æ": 107,
      "ç": 108,
      "è": 109,
      "é": 110,
      "ê": 111,
      "ë": 112,
      "ì": 113,
      "í": 114,
      "î": 115,
      "ï": 116,
      "ð": 117,
      "ñ": 118,
      "ò": 119,
      "ó": 120,
      "ô": 121,
      "õ": 122,
      "ö": 123,
      "÷": 124,
      "ø": 125,
      "ù": 126,
      "ú": 127,
      "û": 128,
      "ü": 129,
      "ý": 130,
      "þ": 131,
      "ÿ": 132,
      "ā": 133,
      "ă": 134,
      "ą": 135,
      "ć": 136,
      "č": 137,
      "đ": 138,
      "ē": 139,
      "ė": 140,
      "ę": 141,
      "ě": 142,
      "ğ": 143,
      "ģ": 144,
      "ī": 145,
      "ı": 146,
      "ķ": 147,
      "ļ": 148,
      "ł": 149,
      "ń": 150,
      "ņ": 151,
      "ō": 152,
      "ŏ": 153,
      "ő": 154,
      "œ": 155,
      "ř": 156,
      "ś": 157,
      "ş": 158,
      "š": 159,
      "ţ": 160,
      "ť": 161,
      "ū": 162,
      "ů": 163,
      "ų": 164,
      "ŷ": 165,
      "ź": 166,
      "ż": 167,
      "ž": 168,
      "ǐ": 169,
      "ǒ": 170,
      "ǚ": 171,
      "ǝ": 172,
      "ț": 173,
      "ɐ": 174,
      "ɑ": 175,
      "ɔ": 176,
      "ə": 177,
      "ɛ": 178,
      "ɢ": 179,
      "ɪ": 180,
      "ʍ": 181,
      "ʒ": 182,
      "ʟ": 183,
      "ʹ": 184,
      "ʺ": 185,
      "ʼ": 186,
      "ˆ": 187,
      "ˈ": 188,
      "ˮ": 189,
      "́": 190,
      "̄": 191,
      "̆": 192,
      "̇": 193,
      "̊": 194,
      "̧": 195,
      "̶": 196,
      "έ": 197,
      "ή": 198,
      "ί": 199,
      "α": 200,
      "β": 201,
      "γ": 202,
      "δ": 203,
      "ε": 204,
      "ζ": 205,
      "η": 206,
      "θ": 207,
      "ι": 208,
      "κ": 209,
      "λ": 210,
      "μ": 211,
      "ν": 212,
      "ξ": 213,
      "ο": 214,
      "π": 215,
      "ρ": 216,
      "ς": 217,
      "σ": 218,
      "τ": 219,
      "υ": 220,
      "φ": 221,
      "χ": 222,
      "ψ": 223,
      "ω": 224,
      "ϋ": 225,
      "ό": 226,
      "ύ": 227,
      "ώ": 228,
      "а": 229,
      "б": 230,
      "в": 231,
      "г": 232,
      "д": 233,
      "е": 234,
      "ж": 235,
      "з": 236,
      "и": 237,
      "й": 238,
      "к": 239,
      "л": 240,
      "м": 241,
      "н": 242,
      "о": 243,
      "п": 244,
      "р": 245,
      "с": 246,
      "т": 247,
      "у": 248,
      "ф": 249,
      "х": 250,
      "ц": 251,
      "ч": 252,
      "ш": 253,
      "щ": 254,
      "ъ": 255,
      "ы": 256,
      "ь": 257,
      "э": 258,
      "ю": 259,
      "я": 260,
      "ё": 261,
      "є": 262,
      "і": 263,
      "ї": 264,
      "ј": 265,
      "љ": 266,
      "њ": 267,
      "ћ": 268,
      "ў": 269,
      "ѣ": 270,
      "ѧ": 271,
      "ѳ": 272,
      "ґ": 273,
      "ғ": 274,
      "җ": 275,
      "қ": 276,
      "ң": 277,
      "ҥ": 278,
      "ү": 279,
      "ұ": 280,
      "ә": 281,
      "ӣ": 282,
      "ӧ": 283,
      "ө": 284,
      "ֿ": 285,
      "א": 286,
      "ב": 287,
      "ד": 288,
      "ה": 289,
      "ו": 290,
      "ז": 291,
      "ח": 292,
      "י": 293,
      "כ": 294,
      "ל": 295,
      "ם": 296,
      "ן": 297,
      "נ": 298,
      "פ": 299,
      "ץ": 300,
      "צ": 301,
      "ק": 302,
      "ר": 303,
      "ש": 304,
      "ת": 305,
      "،": 306,
      "ؙ": 307,
      "؛": 308,
      "؟": 309,
      "ء": 310,
      "آ": 311,
      "أ": 312,
      "ؤ": 313,
      "ئ": 314,
      "ا": 315,
      "ب": 316,
      "ة": 317,
      "ت": 318,
      "ث": 319,
      "ج": 320,
      "ح": 321,
      "خ": 322,
      "د": 323,
      "ذ": 324,
      "ر": 325,
      "ز": 326,
      "س": 327,
      "ش": 328,
      "ص": 329,
      "ط": 330,
      "ظ": 331,
      "ع": 332,
      "غ": 333,
      "ف": 334,
      "ق": 335,
      "ك": 336,
      "ل": 337,
      "م": 338,
      "ن": 339,
      "ه": 340,
      "و": 341,
      "ى": 342,
      "ي": 343,
      "پ": 344,
      "چ": 345,
      "ک": 346,
      "گ": 347,
      "ی": 348,
      "۞": 349,
      "۴": 350,
      "۵": 351,
      "۷": 352,
      "۹": 353,
      "प": 354,
      "म": 355,
      "र": 356,
      "श": 357,
      "ा": 358,
      "ु": 359,
      "ખ": 360,
      "ફ": 361,
      "બ": 362,
      "ર": 363,
      "લ": 364,
      "સ": 365,
      "ા": 366,
      "ો": 367,
      "્": 368,
      "ก": 369,
      "ข": 370,
      "ค": 371,
      "ง": 372,
      "จ": 373,
      "ฉ": 374,
      "ช": 375,
      "ณ": 376,
      "ด": 377,
      "ต": 378,
      "ถ": 379,
      "ท": 380,
      "ธ": 381,
      "น": 382,
      "บ": 383,
      "ป": 384,
      "ผ": 385,
      "พ": 386,
      "ฟ": 387,
      "ภ": 388,
      "ม": 389,
      "ย": 390,
      "ร": 391,
      "ล": 392,
      "ว": 393,
      "ศ": 394,
      "ส": 395,
      "ห": 396,
      "อ": 397,
      "ะ": 398,
      "ั": 399,
      "า": 400,
      "ิ": 401,
      "ี": 402,
      "ึ": 403,
      "ื": 404,
      "ุ": 405,
      "ู": 406,
      "เ": 407,
      "แ": 408,
      "โ": 409,
      "ไ": 410,
      "็": 411,
      "่": 412,
      "้": 413,
      "๊": 414,
      "ํ": 415,
      "ᄏ": 416,
      "ᴄ": 417,
      "ᴥ": 418,
      "ᶅ": 419,
      "ᶘ": 420,
      "ḥ": 421,
      "ḫ": 422,
      "ả": 423,
      "ầ": 424,
      "ễ": 425,
      "ệ": 426,
      "ị": 427,
      "ố": 428,
      "ộ": 429,
      "ớ": 430,
      "ụ": 431,
      "ứ": 432,
      "ἅ": 433,
      "​": 434,
      "‌": 435,
      "‍": 436,
      "‎": 437,
      "‏": 438,
      "‐": 439,
      "‒": 440,
      "–": 441,
      "—": 442,
      "―": 443,
      "‘": 444,
      "’": 445,
      "‚": 446,
      "“": 447,
      "”": 448,
      "„": 449,
      "†": 450,
      "•": 451,
      "‪": 452,
      "‬": 453,
      "‭": 454,
      "′": 455,
      "※": 456,
      "⁄": 457,
      "⁠": 458,
      "⁣": 459,
      "⁦": 460,
      "₣": 461,
      "₤": 462,
      "€": 463,
      "₽": 464,
      "⃣": 465,
      "←": 466,
      "↑": 467,
      "→": 468,
      "↓": 469,
      "∆": 470,
      "∈": 471,
      "−": 472,
      "∙": 473,
      "√": 474,
      "∞": 475,
      "∩": 476,
      "≠": 477,
      "≡": 478,
      "≤": 479,
      "≥": 480,
      "⊕": 481,
      "⋅": 482,
      "⏳": 483,
      "─": 484,
      "╗": 485,
      "▪": 486,
      "▴": 487,
      "►": 488,
      "▼": 489,
      "◕": 490,
      "◠": 491,
      "◾": 492,
      "☀": 493,
      "☁": 494,
      "☄": 495,
      "★": 496,
      "☇": 497,
      "☎": 498,
      "☑": 499,
      "☔": 500,
      "☕": 501,
      "☘": 502,
      "☝": 503,
      "☠": 504,
      "☺": 505,
      "♀": 506,
      "♂": 507,
      "♈": 508,
      "♉": 509,
      "♌": 510,
      "♏": 511,
      "♐": 512,
      "♑": 513,
      "♓": 514,
      "♔": 515,
      "♚": 516,
      "♛": 517,
      "♜": 518,
      "♝": 519,
      "♞": 520,
      "♠": 521,
      "♡": 522,
      "♥": 523,
      "♦": 524,
      "♪": 525,
      "⚓": 526,
      "⚔": 527,
      "⚖": 528,
      "⚘": 529,
      "⚜": 530,
      "⚡": 531,
      "⚪": 532,
      "⚫": 533,
      "⚰": 534,
      "⚽": 535,
      "⛅": 536,
      "⛰": 537,
      "✂": 538,
      "✅": 539,
      "✈": 540,
      "✊": 541,
      "✌": 542,
      "✒": 543,
      "✔": 544,
      "✨": 545,
      "✴": 546,
      "✵": 547,
      "✿": 548,
      "❄": 549,
      "❌": 550,
      "❗": 551,
      "❣": 552,
      "❤": 553,
      "❸": 554,
      "❺": 555,
      "➖": 556,
      "➡": 557,
      "➰": 558,
      "⟨": 559,
      "⟩": 560,
      "⠀": 561,
      "⬅": 562,
      "⬆": 563,
      "⭐": 564,
      "⭕": 565,
      "、": 566,
      "。": 567,
      "々": 568,
      "「": 569,
      "」": 570,
      "『": 571,
      "』": 572,
      "〜": 573,
      "〰": 574,
      "あ": 575,
      "い": 576,
      "う": 577,
      "え": 578,
      "お": 579,
      "か": 580,
      "が": 581,
      "き": 582,
      "ぎ": 583,
      "く": 584,
      "ぐ": 585,
      "け": 586,
      "こ": 587,
      "ご": 588,
      "さ": 589,
      "ざ": 590,
      "し": 591,
      "じ": 592,
      "す": 593,
      "ず": 594,
      "せ": 595,
      "そ": 596,
      "た": 597,
      "だ": 598,
      "ち": 599,
      "っ": 600,
      "つ": 601,
      "て": 602,
      "で": 603,
      "と": 604,
      "ど": 605,
      "な": 606,
      "に": 607,
      "ね": 608,
      "の": 609,
      "は": 610,
      "ば": 611,
      "ふ": 612,
      "へ": 613,
      "ぼ": 614,
      "ぽ": 615,
      "ま": 616,
      "み": 617,
      "む": 618,
      "め": 619,
      "も": 620,
      "ゃ": 621,
      "や": 622,
      "ゅ": 623,
      "よ": 624,
      "ら": 625,
      "り": 626,
      "る": 627,
      "れ": 628,
      "ろ": 629,
      "わ": 630,
      "を": 631,
      "ん": 632,
      "ア": 633,
      "ィ": 634,
      "イ": 635,
      "ウ": 636,
      "ェ": 637,
      "エ": 638,
      "ォ": 639,
      "オ": 640,
      "カ": 641,
      "ガ": 642,
      "キ": 643,
      "ギ": 644,
      "ク": 645,
      "グ": 646,
      "ケ": 647,
      "コ": 648,
      "ゴ": 649,
      "サ": 650,
      "シ": 651,
      "ジ": 652,
      "ス": 653,
      "ズ": 654,
      "セ": 655,
      "ソ": 656,
      "タ": 657,
      "ダ": 658,
      "チ": 659,
      "ッ": 660,
      "ツ": 661,
      "テ": 662,
      "ト": 663,
      "ド": 664,
      "ナ": 665,
      "ニ": 666,
      "ネ": 667,
      "ノ": 668,
      "ハ": 669,
      "バ": 670,
      "パ": 671,
      "ビ": 672,
      "ピ": 673,
      "フ": 674,
      "ブ": 675,
      "プ": 676,
      "ヘ": 677,
      "ペ": 678,
      "ボ": 679,
      "ポ": 680,
      "マ": 681,
      "ム": 682,
      "メ": 683,
      "モ": 684,
      "ャ": 685,
      "ュ": 686,
      "ョ": 687,
      "ヨ": 688,
      "ラ": 689,
      "リ": 690,
      "ル": 691,
      "レ": 692,
      "ロ": 693,
      "ワ": 694,
      "ン": 695,
      "ヴ": 696,
      "・": 697,
      "ー": 698,
      "一": 699,
      "三": 700,
      "上": 701,
      "下": 702,
      "不": 703,
      "丝": 704,
      "中": 705,
      "为": 706,
      "乗": 707,
      "了": 708,
      "事": 709,
      "五": 710,
      "京": 711,
      "人": 712,
      "今": 713,
      "介": 714,
      "从": 715,
      "仕": 716,
      "他": 717,
      "代": 718,
      "以": 719,
      "会": 720,
      "何": 721,
      "作": 722,
      "你": 723,
      "使": 724,
      "供": 725,
      "促": 726,
      "俞": 727,
      "催": 728,
      "先": 729,
      "光": 730,
      "兒": 731,
      "兔": 732,
      "入": 733,
      "全": 734,
      "关": 735,
      "内": 736,
      "写": 737,
      "出": 738,
      "分": 739,
      "刊": 740,
      "刘": 741,
      "別": 742,
      "到": 743,
      "削": 744,
      "前": 745,
      "剩": 746,
      "加": 747,
      "動": 748,
      "化": 749,
      "北": 750,
      "十": 751,
      "华": 752,
      "博": 753,
      "原": 754,
      "反": 755,
      "口": 756,
      "可": 757,
      "右": 758,
      "号": 759,
      "名": 760,
      "呂": 761,
      "命": 762,
      "和": 763,
      "咲": 764,
      "品": 765,
      "喜": 766,
      "嘘": 767,
      "国": 768,
      "園": 769,
      "土": 770,
      "地": 771,
      "基": 772,
      "堂": 773,
      "報": 774,
      "塩": 775,
      "士": 776,
      "夕": 777,
      "外": 778,
      "大": 779,
      "天": 780,
      "女": 781,
      "好": 782,
      "妙": 783,
      "嬉": 784,
      "子": 785,
      "字": 786,
      "室": 787,
      "寝": 788,
      "寻": 789,
      "導": 790,
      "小": 791,
      "尚": 792,
      "尾": 793,
      "屋": 794,
      "展": 795,
      "山": 796,
      "島": 797,
      "左": 798,
      "市": 799,
      "帯": 800,
      "平": 801,
      "年": 802,
      "幼": 803,
      "广": 804,
      "度": 805,
      "康": 806,
      "当": 807,
      "征": 808,
      "後": 809,
      "微": 810,
      "心": 811,
      "怒": 812,
      "思": 813,
      "性": 814,
      "悔": 815,
      "悦": 816,
      "悲": 817,
      "情": 818,
      "想": 819,
      "愛": 820,
      "感": 821,
      "戏": 822,
      "成": 823,
      "我": 824,
      "承": 825,
      "投": 826,
      "担": 827,
      "拡": 828,
      "持": 829,
      "探": 830,
      "推": 831,
      "提": 832,
      "揽": 833,
      "撃": 834,
      "敏": 835,
      "教": 836,
      "散": 837,
      "文": 838,
      "斯": 839,
      "新": 840,
      "方": 841,
      "日": 842,
      "是": 843,
      "時": 844,
      "普": 845,
      "暖": 846,
      "暮": 847,
      "月": 848,
      "有": 849,
      "朝": 850,
      "本": 851,
      "札": 852,
      "李": 853,
      "来": 854,
      "東": 855,
      "极": 856,
      "枚": 857,
      "柒": 858,
      "柯": 859,
      "柴": 860,
      "梦": 861,
      "植": 862,
      "極": 863,
      "様": 864,
      "機": 865,
      "欢": 866,
      "止": 867,
      "歧": 868,
      "死": 869,
      "段": 870,
      "比": 871,
      "気": 872,
      "氷": 873,
      "沙": 874,
      "治": 875,
      "洪": 876,
      "活": 877,
      "流": 878,
      "浮": 879,
      "海": 880,
      "游": 881,
      "湯": 882,
      "満": 883,
      "滚": 884,
      "災": 885,
      "点": 886,
      "為": 887,
      "然": 888,
      "照": 889,
      "熊": 890,
      "爱": 891,
      "片": 892,
      "物": 893,
      "犬": 894,
      "状": 895,
      "狗": 896,
      "狭": 897,
      "猫": 898,
      "玉": 899,
      "理": 900,
      "生": 901,
      "産": 902,
      "用": 903,
      "由": 904,
      "男": 905,
      "留": 906,
      "番": 907,
      "痢": 908,
      "登": 909,
      "百": 910,
      "的": 911,
      "皮": 912,
      "盆": 913,
      "目": 914,
      "直": 915,
      "相": 916,
      "真": 917,
      "着": 918,
      "短": 919,
      "社": 920,
      "祖": 921,
      "票": 922,
      "祭": 923,
      "禁": 924,
      "空": 925,
      "立": 926,
      "笑": 927,
      "粉": 928,
      "素": 929,
      "索": 930,
      "紹": 931,
      "組": 932,
      "経": 933,
      "絵": 934,
      "線": 935,
      "編": 936,
      "練": 937,
      "繋": 938,
      "绅": 939,
      "终": 940,
      "置": 941,
      "考": 942,
      "者": 943,
      "聞": 944,
      "肌": 945,
      "自": 946,
      "良": 947,
      "芭": 948,
      "花": 949,
      "茎": 950,
      "茶": 951,
      "草": 952,
      "落": 953,
      "虫": 954,
      "虾": 955,
      "行": 956,
      "街": 957,
      "製": 958,
      "見": 959,
      "视": 960,
      "許": 961,
      "誘": 962,
      "調": 963,
      "談": 964,
      "諾": 965,
      "词": 966,
      "谢": 967,
      "豆": 968,
      "負": 969,
      "買": 970,
      "賀": 971,
      "購": 972,
      "超": 973,
      "路": 974,
      "躍": 975,
      "載": 976,
      "輪": 977,
      "还": 978,
      "这": 979,
      "进": 980,
      "追": 981,
      "送": 982,
      "途": 983,
      "通": 984,
      "連": 985,
      "遊": 986,
      "達": 987,
      "還": 988,
      "那": 989,
      "郎": 990,
      "部": 991,
      "野": 992,
      "量": 993,
      "鎧": 994,
      "钟": 995,
      "键": 996,
      "長": 997,
      "长": 998,
      "開": 999,
      "間": 1000,
      "除": 1001,
      "陽": 1002,
      "集": 1003,
      "雨": 1004,
      "雯": 1005,
      "電": 1006,
      "響": 1007,
      "頂": 1008,
      "順": 1009,
      "須": 1010,
      "顔": 1011,
      "風": 1012,
      "飛": 1013,
      "館": 1014,
      "高": 1015,
      "魚": 1016,
      "가": 1017,
      "간": 1018,
      "감": 1019,
      "갑": 1020,
      "강": 1021,
      "걀": 1022,
      "거": 1023,
      "걸": 1024,
      "것": 1025,
      "게": 1026,
      "겠": 1027,
      "겨": 1028,
      "격": 1029,
      "경": 1030,
      "계": 1031,
      "고": 1032,
      "골": 1033,
      "공": 1034,
      "과": 1035,
      "교": 1036,
      "구": 1037,
      "국": 1038,
      "귀": 1039,
      "그": 1040,
      "근": 1041,
      "글": 1042,
      "금": 1043,
      "기": 1044,
      "긴": 1045,
      "길": 1046,
      "께": 1047,
      "껼": 1048,
      "꼭": 1049,
      "나": 1050,
      "남": 1051,
      "났": 1052,
      "내": 1053,
      "냐": 1054,
      "너": 1055,
      "넛": 1056,
      "네": 1057,
      "년": 1058,
      "념": 1059,
      "녹": 1060,
      "뉴": 1061,
      "느": 1062,
      "는": 1063,
      "늘": 1064,
      "니": 1065,
      "다": 1066,
      "단": 1067,
      "달": 1068,
      "담": 1069,
      "대": 1070,
      "더": 1071,
      "데": 1072,
      "도": 1073,
      "돋": 1074,
      "동": 1075,
      "되": 1076,
      "된": 1077,
      "드": 1078,
      "득": 1079,
      "들": 1080,
      "등": 1081,
      "디": 1082,
      "따": 1083,
      "때": 1084,
      "떼": 1085,
      "또": 1086,
      "뛰": 1087,
      "뜨": 1088,
      "라": 1089,
      "래": 1090,
      "램": 1091,
      "러": 1092,
      "럽": 1093,
      "레": 1094,
      "렉": 1095,
      "려": 1096,
      "렵": 1097,
      "로": 1098,
      "루": 1099,
      "르": 1100,
      "른": 1101,
      "를": 1102,
      "름": 1103,
      "리": 1104,
      "릭": 1105,
      "린": 1106,
      "림": 1107,
      "마": 1108,
      "만": 1109,
      "많": 1110,
      "맛": 1111,
      "망": 1112,
      "매": 1113,
      "맥": 1114,
      "머": 1115,
      "먹": 1116,
      "멋": 1117,
      "메": 1118,
      "면": 1119,
      "명": 1120,
      "모": 1121,
      "목": 1122,
      "몸": 1123,
      "무": 1124,
      "문": 1125,
      "물": 1126,
      "미": 1127,
      "및": 1128,
      "밑": 1129,
      "바": 1130,
      "반": 1131,
      "발": 1132,
      "밤": 1133,
      "방": 1134,
      "배": 1135,
      "버": 1136,
      "벅": 1137,
      "번": 1138,
      "범": 1139,
      "베": 1140,
      "별": 1141,
      "보": 1142,
      "복": 1143,
      "본": 1144,
      "봤": 1145,
      "부": 1146,
      "분": 1147,
      "뷰": 1148,
      "브": 1149,
      "블": 1150,
      "비": 1151,
      "빈": 1152,
      "빌": 1153,
      "빛": 1154,
      "쁘": 1155,
      "사": 1156,
      "상": 1157,
      "생": 1158,
      "샤": 1159,
      "서": 1160,
      "선": 1161,
      "성": 1162,
      "세": 1163,
      "셔": 1164,
      "션": 1165,
      "소": 1166,
      "손": 1167,
      "쇼": 1168,
      "수": 1169,
      "술": 1170,
      "슈": 1171,
      "스": 1172,
      "습": 1173,
      "시": 1174,
      "식": 1175,
      "실": 1176,
      "쌓": 1177,
      "쌤": 1178,
      "씨": 1179,
      "아": 1180,
      "안": 1181,
      "알": 1182,
      "았": 1183,
      "앨": 1184,
      "야": 1185,
      "얄": 1186,
      "양": 1187,
      "어": 1188,
      "억": 1189,
      "언": 1190,
      "업": 1191,
      "없": 1192,
      "었": 1193,
      "에": 1194,
      "엘": 1195,
      "여": 1196,
      "연": 1197,
      "영": 1198,
      "예": 1199,
      "오": 1200,
      "올": 1201,
      "와": 1202,
      "왔": 1203,
      "요": 1204,
      "용": 1205,
      "우": 1206,
      "운": 1207,
      "울": 1208,
      "웅": 1209,
      "워": 1210,
      "원": 1211,
      "위": 1212,
      "육": 1213,
      "윤": 1214,
      "으": 1215,
      "은": 1216,
      "을": 1217,
      "음": 1218,
      "응": 1219,
      "의": 1220,
      "이": 1221,
      "인": 1222,
      "일": 1223,
      "입": 1224,
      "있": 1225,
      "자": 1226,
      "작": 1227,
      "장": 1228,
      "저": 1229,
      "전": 1230,
      "절": 1231,
      "접": 1232,
      "젔": 1233,
      "정": 1234,
      "제": 1235,
      "조": 1236,
      "종": 1237,
      "좋": 1238,
      "죠": 1239,
      "주": 1240,
      "줄": 1241,
      "중": 1242,
      "즈": 1243,
      "즘": 1244,
      "지": 1245,
      "진": 1246,
      "질": 1247,
      "집": 1248,
      "징": 1249,
      "참": 1250,
      "창": 1251,
      "채": 1252,
      "처": 1253,
      "추": 1254,
      "축": 1255,
      "츠": 1256,
      "친": 1257,
      "카": 1258,
      "캇": 1259,
      "캔": 1260,
      "커": 1261,
      "컬": 1262,
      "코": 1263,
      "콩": 1264,
      "크": 1265,
      "큼": 1266,
      "키": 1267,
      "타": 1268,
      "탐": 1269,
      "탑": 1270,
      "태": 1271,
      "택": 1272,
      "터": 1273,
      "텔": 1274,
      "토": 1275,
      "톡": 1276,
      "톤": 1277,
      "톰": 1278,
      "통": 1279,
      "투": 1280,
      "튀": 1281,
      "트": 1282,
      "특": 1283,
      "티": 1284,
      "틴": 1285,
      "팅": 1286,
      "파": 1287,
      "판": 1288,
      "퍼": 1289,
      "페": 1290,
      "평": 1291,
      "포": 1292,
      "표": 1293,
      "품": 1294,
      "프": 1295,
      "플": 1296,
      "피": 1297,
      "픽": 1298,
      "하": 1299,
      "한": 1300,
      "할": 1301,
      "함": 1302,
      "합": 1303,
      "해": 1304,
      "했": 1305,
      "행": 1306,
      "헌": 1307,
      "헤": 1308,
      "형": 1309,
      "홍": 1310,
      "화": 1311,
      "활": 1312,
      "회": 1313,
      "후": 1314,
      "휘": 1315,
      "휴": 1316,
      "희": 1317,
      "힐": 1318,
      "": 1319,
      "": 1320,
      "": 1321,
      "": 1322,
      "": 1323,
      "": 1324,
      "": 1325,
      "": 1326,
      "": 1327,
      "️": 1328,
      "﻿": 1329,
      "￼": 1330,
      "�": 1331,
      "🆘": 1332,
      "🇦": 1333,
      "🇧": 1334,
      "🇨": 1335,
      "🇩": 1336,
      "🇪": 1337,
      "🇬": 1338,
      "🇭": 1339,
      "🇮": 1340,
      "🇯": 1341,
      "🇰": 1342,
      "🇱": 1343,
      "🇲": 1344,
      "🇳": 1345,
      "🇵": 1346,
      "🇷": 1347,
      "🇸": 1348,
      "🇹": 1349,
      "🇺": 1350,
      "🇽": 1351,
      "🇿": 1352,
      "🌅": 1353,
      "🌈": 1354,
      "🌊": 1355,
      "🌌": 1356,
      "🌍": 1357,
      "🌎": 1358,
      "🌏": 1359,
      "🌔": 1360,
      "🌕": 1361,
      "🌙": 1362,
      "🌚": 1363,
      "🌝": 1364,
      "🌞": 1365,
      "🌟": 1366,
      "🌠": 1367,
      "🌥": 1368,
      "🌧": 1369,
      "🌩": 1370,
      "🌪": 1371,
      "🌮": 1372,
      "🌱": 1373,
      "🌳": 1374,
      "🌴": 1375,
      "🌵": 1376,
      "🌷": 1377,
      "🌸": 1378,
      "🌹": 1379,
      "🌺": 1380,
      "🌻": 1381,
      "🌼": 1382,
      "🌾": 1383,
      "🌿": 1384,
      "🍀": 1385,
      "🍁": 1386,
      "🍂": 1387,
      "🍃": 1388,
      "🍄": 1389,
      "🍅": 1390,
      "🍆": 1391,
      "🍉": 1392,
      "🍊": 1393,
      "🍋": 1394,
      "🍌": 1395,
      "🍍": 1396,
      "🍎": 1397,
      "🍏": 1398,
      "🍐": 1399,
      "🍑": 1400,
      "🍒": 1401,
      "🍓": 1402,
      "🍔": 1403,
      "🍕": 1404,
      "🍜": 1405,
      "🍟": 1406,
      "🍡": 1407,
      "🍥": 1408,
      "🍦": 1409,
      "🍩": 1410,
      "🍪": 1411,
      "🍫": 1412,
      "🍬": 1413,
      "🍮": 1414,
      "🍳": 1415,
      "🍴": 1416,
      "🍷": 1417,
      "🍹": 1418,
      "🍻": 1419,
      "🍼": 1420,
      "🍾": 1421,
      "🍿": 1422,
      "🎀": 1423,
      "🎁": 1424,
      "🎂": 1425,
      "🎃": 1426,
      "🎄": 1427,
      "🎅": 1428,
      "🎆": 1429,
      "🎇": 1430,
      "🎈": 1431,
      "🎉": 1432,
      "🎊": 1433,
      "🎙": 1434,
      "🎤": 1435,
      "🎥": 1436,
      "🎨": 1437,
      "🎩": 1438,
      "🎪": 1439,
      "🎬": 1440,
      "🎭": 1441,
      "🎵": 1442,
      "🎶": 1443,
      "🎼": 1444,
      "🏁": 1445,
      "🏂": 1446,
      "🏃": 1447,
      "🏄": 1448,
      "🏆": 1449,
      "🏊": 1450,
      "🏋": 1451,
      "🏌": 1452,
      "🏒": 1453,
      "🏔": 1454,
      "🏖": 1455,
      "🏝": 1456,
      "🏡": 1457,
      "🏨": 1458,
      "🏳": 1459,
      "🏺": 1460,
      "🏻": 1461,
      "🏼": 1462,
      "🏽": 1463,
      "🏾": 1464,
      "🏿": 1465,
      "🐅": 1466,
      "🐇": 1467,
      "🐈": 1468,
      "🐉": 1469,
      "🐊": 1470,
      "🐍": 1471,
      "🐎": 1472,
      "🐒": 1473,
      "🐓": 1474,
      "🐔": 1475,
      "🐖": 1476,
      "🐚": 1477,
      "🐠": 1478,
      "🐢": 1479,
      "🐣": 1480,
      "🐧": 1481,
      "🐬": 1482,
      "🐰": 1483,
      "🐱": 1484,
      "🐳": 1485,
      "🐴": 1486,
      "🐶": 1487,
      "🐷": 1488,
      "🐸": 1489,
      "🐺": 1490,
      "🐻": 1491,
      "🐼": 1492,
      "🐽": 1493,
      "🐾": 1494,
      "🐿": 1495,
      "👀": 1496,
      "👁": 1497,
      "👄": 1498,
      "👅": 1499,
      "👆": 1500,
      "👇": 1501,
      "👈": 1502,
      "👉": 1503,
      "👊": 1504,
      "👋": 1505,
      "👌": 1506,
      "👍": 1507,
      "👎": 1508,
      "👏": 1509,
      "👑": 1510,
      "👒": 1511,
      "👓": 1512,
      "👔": 1513,
      "👕": 1514,
      "👖": 1515,
      "👗": 1516,
      "👙": 1517,
      "👛": 1518,
      "👜": 1519,
      "👞": 1520,
      "👟": 1521,
      "👠": 1522,
      "👡": 1523,
      "👢": 1524,
      "👣": 1525,
      "👧": 1526,
      "👨": 1527,
      "👩": 1528,
      "👮": 1529,
      "👯": 1530,
      "👰": 1531,
      "👱": 1532,
      "👴": 1533,
      "👶": 1534,
      "👸": 1535,
      "👹": 1536,
      "👻": 1537,
      "👼": 1538,
      "👽": 1539,
      "👿": 1540,
      "💀": 1541,
      "💁": 1542,
      "💃": 1543,
      "💄": 1544,
      "💅": 1545,
      "💇": 1546,
      "💉": 1547,
      "💊": 1548,
      "💋": 1549,
      "💌": 1550,
      "💍": 1551,
      "💎": 1552,
      "💐": 1553,
      "💓": 1554,
      "💔": 1555,
      "💕": 1556,
      "💖": 1557,
      "💗": 1558,
      "💘": 1559,
      "💙": 1560,
      "💚": 1561,
      "💛": 1562,
      "💜": 1563,
      "💝": 1564,
      "💞": 1565,
      "💟": 1566,
      "💡": 1567,
      "💣": 1568,
      "💥": 1569,
      "💦": 1570,
      "💧": 1571,
      "💩": 1572,
      "💪": 1573,
      "💫": 1574,
      "💭": 1575,
      "💯": 1576,
      "💰": 1577,
      "💳": 1578,
      "💸": 1579,
      "💼": 1580,
      "💿": 1581,
      "📀": 1582,
      "📆": 1583,
      "📍": 1584,
      "📖": 1585,
      "📚": 1586,
      "📝": 1587,
      "📣": 1588,
      "📲": 1589,
      "📷": 1590,
      "📸": 1591,
      "📺": 1592,
      "📻": 1593,
      "📿": 1594,
      "🔊": 1595,
      "🔌": 1596,
      "🔎": 1597,
      "🔐": 1598,
      "🔑": 1599,
      "🔙": 1600,
      "🔜": 1601,
      "🔝": 1602,
      "🔥": 1603,
      "🔨": 1604,
      "🔪": 1605,
      "🔫": 1606,
      "🔴": 1607,
      "🔵": 1608,
      "🔸": 1609,
      "🔹": 1610,
      "🔻": 1611,
      "🕊": 1612,
      "🕯": 1613,
      "🕶": 1614,
      "🕺": 1615,
      "🖕": 1616,
      "🖖": 1617,
      "🖤": 1618,
      "🗣": 1619,
      "🗼": 1620,
      "😀": 1621,
      "😁": 1622,
      "😂": 1623,
      "😃": 1624,
      "😄": 1625,
      "😅": 1626,
      "😆": 1627,
      "😇": 1628,
      "😈": 1629,
      "😉": 1630,
      "😊": 1631,
      "😋": 1632,
      "😌": 1633,
      "😍": 1634,
      "😎": 1635,
      "😏": 1636,
      "😐": 1637,
      "😑": 1638,
      "😒": 1639,
      "😓": 1640,
      "😔": 1641,
      "😖": 1642,
      "😘": 1643,
      "😛": 1644,
      "😜": 1645,
      "😝": 1646,
      "😠": 1647,
      "😡": 1648,
      "😢": 1649,
      "😥": 1650,
      "😦": 1651,
      "😨": 1652,
      "😩": 1653,
      "😫": 1654,
      "😬": 1655,
      "😭": 1656,
      "😮": 1657,
      "😯": 1658,
      "😰": 1659,
      "😱": 1660,
      "😲": 1661,
      "😳": 1662,
      "😴": 1663,
      "😶": 1664,
      "😸": 1665,
      "😹": 1666,
      "😻": 1667,
      "😼": 1668,
      "😽": 1669,
      "🙀": 1670,
      "🙃": 1671,
      "🙄": 1672,
      "🙅": 1673,
      "🙆": 1674,
      "🙇": 1675,
      "🙈": 1676,
      "🙉": 1677,
      "🙊": 1678,
      "🙋": 1679,
      "🙌": 1680,
      "🙏": 1681,
      "🚀": 1682,
      "🚂": 1683,
      "🚑": 1684,
      "🚒": 1685,
      "🚗": 1686,
      "🚢": 1687,
      "🚨": 1688,
      "🚩": 1689,
      "🚫": 1690,
      "🚬": 1691,
      "🚲": 1692,
      "🚺": 1693,
      "🚼": 1694,
      "🚽": 1695,
      "🚿": 1696,
      "🛀": 1697,
      "🛁": 1698,
      "🛍": 1699,
      "🛎": 1700,
      "🛏": 1701,
      "🛒": 1702,
      "🛩": 1703,
      "🛵": 1704,
      "🤓": 1705,
      "🤔": 1706,
      "🤕": 1707,
      "🤖": 1708,
      "🤗": 1709,
      "🤘": 1710,
      "🤙": 1711,
      "🤝": 1712,
      "🤞": 1713,
      "🤟": 1714,
      "🤠": 1715,
      "🤢": 1716,
      "🤣": 1717,
      "🤤": 1718,
      "🤦": 1719,
      "🤨": 1720,
      "🤩": 1721,
      "🤪": 1722,
      "🤫": 1723,
      "🤬": 1724,
      "🤭": 1725,
      "🤯": 1726,
      "🤲": 1727,
      "🤵": 1728,
      "🤷": 1729,
      "🤼": 1730,
      "🥃": 1731,
      "🥇": 1732,
      "🥈": 1733,
      "🥉": 1734,
      "🥊": 1735,
      "🥋": 1736,
      "🥑": 1737,
      "🥰": 1738,
      "🥳": 1739,
      "🥶": 1740,
      "🦀": 1741,
      "🦁": 1742,
      "🦄": 1743,
      "🦅": 1744,
      "🦈": 1745,
      "🦊": 1746,
      "🦋": 1747,
      "🦍": 1748,
      "🦶": 1749,
      "🧐": 1750,
      "🧛": 1751,
      "🧜": 1752,
      "🧞": 1753,
      "󾌧": 1754,
      "󾔒": 1755,
      " п": 1756,
      " с": 1757,
      " в": 1758,
      "ст": 1759,
      "ен": 1760,
      "ро": 1761,
      "ра": 1762,
      " н": 1763,
      "ко": 1764,
      " о": 1765,
      "то": 1766,
      "но": 1767,
      "ре": 1768,
      " и": 1769,
      " по": 1770,
      "го": 1771,
      "ли": 1772,
      "ан": 1773,
      " д": 1774,
      "ет": 1775,
      " м": 1776,
      " на": 1777,
      "ер": 1778,
      "ль": 1779,
      "ка": 1780,
      "ла": 1781,
      "ва": 1782,
      "за": 1783,
      "та": 1784,
      "ри": 1785,
      " б": 1786,
      "ны": 1787,
      "ло": 1788,
      "во": 1789,
      "ни": 1790,
      "те": 1791,
      "ки": 1792,
      "ени": 1793,
      "ле": 1794,
      " ч": 1795,
      "на": 1796,
      " у": 1797,
      "да": 1798,
      " а": 1799,
      " ко": 1800,
      "ви": 1801,
      " со": 1802,
      " за": 1803,
      "ти": 1804,
      "ся": 1805,
      "ть": 1806,
      "ци": 1807,
      " не": 1808,
      "ру": 1809,
      " про": 1810,
      "ми": 1811,
      " ра": 1812,
      " к": 1813,
      "сс": 1814,
      "ди": 1815,
      "ани": 1816,
      " го": 1817,
      " э": 1818,
      " об": 1819,
      "ско": 1820,
      " до": 1821,
      "ля": 1822,
      "ве": 1823,
      "не": 1824,
      "де": 1825,
      " г": 1826,
      "мо": 1827,
      " от": 1828,
      " что": 1829,
      " пре": 1830,
      "сти": 1831,
      " при": 1832,
      "до": 1833,
      " е": 1834,
      " т": 1835,
      "по": 1836,
      " «": 1837,
      " во": 1838,
      "ста": 1839,
      "ем": 1840,
      "бо": 1841,
      "ры": 1842,
      "ду": 1843,
      "ски": 1844,
      " из": 1845,
      "ча": 1846,
      " ка": 1847,
      "ма": 1848,
      " 2": 1849,
      " ф": 1850,
      " ро": 1851,
      "чи": 1852,
      "ей": 1853,
      " ре": 1854,
      " вы": 1855,
      " \"": 1856,
      "хо": 1857,
      "же": 1858,
      "ения": 1859,
      "ной": 1860,
      "че": 1861,
      " бы": 1862,
      " то": 1863,
      "лу": 1864,
      "ных": 1865,
      " мо": 1866,
      "тель": 1867,
      "сь": 1868,
      "сси": 1869,
      "ров": 1870,
      "ши": 1871,
      "об": 1872,
      "ку": 1873,
      "сто": 1874,
      " ми": 1875,
      "жи": 1876,
      "зи": 1877,
      " 1": 1878,
      " это": 1879,
      " та": 1880,
      "ме": 1881,
      "ного": 1882,
      "вы": 1883,
      "щи": 1884,
      "ну": 1885,
      " ма": 1886,
      "ги": 1887,
      "па": 1888,
      " но": 1889,
      "се": 1890,
      "зо": 1891,
      " росси": 1892,
      "ции": 1893,
      "ение": 1894,
      "га": 1895,
      "пи": 1896,
      " кото": 1897,
      "мен": 1898,
      "ере": 1899,
      "си": 1900,
      " де": 1901,
      "со": 1902,
      " под": 1903,
      " бо": 1904,
      "ту": 1905,
      "ств": 1906,
      "му": 1907,
      " 20": 1908,
      " ме": 1909,
      "ют": 1910,
      " —": 1911,
      "ря": 1912,
      "ные": 1913,
      " пред": 1914,
      "ный": 1915,
      "ше": 1916,
      "би": 1917,
      "вер": 1918,
      "нов": 1919,
      " те": 1920,
      "ща": 1921,
      " сооб": 1922,
      "са": 1923,
      "ется": 1924,
      "ты": 1925,
      " ст": 1926,
      "ня": 1927,
      "м,": 1928,
      "ден": 1929,
      "сть": 1930,
      "лен": 1931,
      " (": 1932,
      ".\n": 1933,
      "ще": 1934,
      " са": 1935,
      "тов": 1936,
      "ков": 1937,
      "ство": 1938,
      " раз": 1939,
      " па": 1940,
      "жа": 1941,
      " ин": 1942,
      "ша": 1943,
      "сле": 1944,
      " ком": 1945,
      " з": 1946,
      "лю": 1947,
      "ке": 1948,
      "цен": 1949,
      "пе": 1950,
      " года": 1951,
      " су": 1952,
      " ли": 1953,
      " так": 1954,
      "пу": 1955,
      "ской": 1956,
      " я": 1957,
      " бу": 1958,
      " как": 1959,
      "ания": 1960,
      "це": 1961,
      " пере": 1962,
      "лет": 1963,
      "су": 1964,
      "мер": 1965,
      "ского": 1966,
      "про": 1967,
      " ста": 1968,
      "ным": 1969,
      " кон": 1970,
      "каза": 1971,
      " си": 1972,
      "ран": 1973,
      "ана": 1974,
      " сво": 1975,
      "ства": 1976,
      "кра": 1977,
      "»,": 1978,
      " он": 1979,
      "ба": 1980,
      " которы": 1981,
      "ск": 1982,
      " его": 1983,
      " од": 1984,
      "гра": 1985,
      " для": 1986,
      " после": 1987,
      "лей": 1988,
      " пра": 1989,
      "дет": 1990,
      "спо": 1991,
      "мы": 1992,
      "лся": 1993,
      "ности": 1994,
      "вать": 1995,
      "ор": 1996,
      "ном": 1997,
      " сообща": 1998,
      "яви": 1999,
      "ствен": 2000,
      " ру": 2001,
      " ни": 2002,
      "бы": 2003,
      " дол": 2004,
      "он": 2005,
      "фи": 2006,
      " -": 2007,
      " бе": 2008,
      "дер": 2009,
      " се": 2010,
      "бе": 2011,
      "тер": 2012,
      "сту": 2013,
      "ды": 2014,
      "ении": 2015,
      "л,": 2016,
      " ве": 2017,
      "ских": 2018,
      "вля": 2019,
      " воз": 2020,
      "ска": 2021,
      "жен": 2022,
      "ин": 2023,
      " все": 2024,
      " также": 2025,
      "она": 2026,
      "ании": 2027,
      " 201": 2028,
      "ский": 2029,
      "гу": 2030,
      " этом": 2031,
      " россии": 2032,
      "кс": 2033,
      "аль": 2034,
      "рем": 2035,
      " пер": 2036,
      "ха": 2037,
      " сто": 2038,
      "зы": 2039,
      "ур": 2040,
      " ш": 2041,
      "лли": 2042,
      " ви": 2043,
      " комп": 2044,
      "тся": 2045,
      "ное": 2046,
      " че": 2047,
      "чен": 2048,
      "вет": 2049,
      "пра": 2050,
      "дов": 2051,
      "тив": 2052,
      "стави": 2053,
      "лись": 2054,
      "пре": 2055,
      "кт": 2056,
      "вши": 2057,
      "ание": 2058,
      "ная": 2059,
      " хо": 2060,
      " 3": 2061,
      " сло": 2062,
      " ча": 2063,
      "ву": 2064,
      "».": 2065,
      " стра": 2066,
      "мет": 2067,
      "\",": 2068,
      "зу": 2069,
      "ца": 2070,
      "ция": 2071,
      " россий": 2072,
      " вла": 2073,
      " ки": 2074,
      "стви": 2075,
      "ность": 2076,
      "зиден": 2077,
      " ав": 2078,
      " гла": 2079,
      "кой": 2080,
      " врем": 2081,
      " полу": 2082,
      "ник": 2083,
      "ходи": 2084,
      "лось": 2085,
      " заяви": 2086,
      " году": 2087,
      "гла": 2088,
      "ться": 2089,
      "стра": 2090,
      " сообщает": 2091,
      "ющи": 2092,
      "ром": 2093,
      " укра": 2094,
      "вой": 2095,
      " милли": 2096,
      " прои": 2097,
      "кан": 2098,
      " президен": 2099,
      "бли": 2100,
      "лько": 2101,
      " был": 2102,
      " рабо": 2103,
      "ную": 2104,
      "вя": 2105,
      "жд": 2106,
      " ба": 2107,
      " пу": 2108,
      "дни": 2109,
      " жи": 2110,
      "ком": 2111,
      " га": 2112,
      " 200": 2113,
      "\".": 2114,
      " ос": 2115,
      "ев": 2116,
      " будет": 2117,
      "стоя": 2118,
      " поли": 2119,
      " расс": 2120,
      "яб": 2121,
      "ления": 2122,
      "ские": 2123,
      " ак": 2124,
      "фор": 2125,
      " ор": 2126,
      " да": 2127,
      "er": 2128,
      "руп": 2129,
      " 5": 2130,
      "вал": 2131,
      " объ": 2132,
      " время": 2133,
      " слова": 2134,
      "рен": 2135,
      "нее": 2136,
      " ди": 2137,
      "пер": 2138,
      "вали": 2139,
      "тра": 2140,
      "ению": 2141,
      "лась": 2142,
      " нача": 2143,
      "го,": 2144,
      "лове": 2145,
      "ент": 2146,
      "жет": 2147,
      " сша": 2148,
      "бу": 2149,
      "рта": 2150,
      " пи": 2151,
      "цию": 2152,
      "кто": 2153,
      " дан": 2154,
      "рой": 2155,
      "рти": 2156,
      "дин": 2157,
      " же": 2158,
      " дру": 2159,
      " ев": 2160,
      " х": 2161,
      " слу": 2162,
      " челове": 2163,
      " фи": 2164,
      "зна": 2165,
      " ты": 2166,
      "ят": 2167,
      "гда": 2168,
      " 4": 2169,
      " уча": 2170,
      "кон": 2171,
      " му": 2172,
      "став": 2173,
      "том": 2174,
      " процен": 2175,
      " цен": 2176,
      "ству": 2177,
      " ва": 2178,
      " боль": 2179,
      " одна": 2180,
      " a": 2181,
      " сре": 2182,
      "лов": 2183,
      " сер": 2184,
      "при": 2185,
      "лы": 2186,
      "00": 2187,
      "рт": 2188,
      " тре": 2189,
      "стре": 2190,
      " было": 2191,
      "гово": 2192,
      " ку": 2193,
      " чи": 2194,
      "ета": 2195,
      "сы": 2196,
      "рии": 2197,
      "ге": 2198,
      " t": 2199,
      "ений": 2200,
      "дар": 2201,
      " были": 2202,
      "теля": 2203,
      "ень": 2204,
      " ю": 2205,
      "телей": 2206,
      "род": 2207,
      " сле": 2208,
      "лее": 2209,
      " вер": 2210,
      "жду": 2211,
      " орг": 2212,
      "циаль": 2213,
      "ника": 2214,
      "мери": 2215,
      " уже": 2216,
      " гра": 2217,
      " тыся": 2218,
      " моск": 2219,
      " само": 2220,
      "in": 2221,
      "пы": 2222,
      " ан": 2223,
      "ек": 2224,
      " обра": 2225,
      "шен": 2226,
      "жно": 2227,
      "ются": 2228,
      " представи": 2229,
      "сов": 2230,
      "ября": 2231,
      "рь": 2232,
      "тели": 2233,
      "ская": 2234,
      " авто": 2235,
      " однако": 2236,
      "сте": 2237,
      " их": 2238,
      "ными": 2239,
      " того,": 2240,
      " евро": 2241,
      " ж": 2242,
      " s": 2243,
      "води": 2244,
      "ском": 2245,
      " тер": 2246,
      " украи": 2247,
      " 19": 2248,
      "ней": 2249,
      " чем": 2250,
      "лан": 2251,
      " амери": 2252,
      "вед": 2253,
      " между": 2254,
      ").": 2255,
      " долла": 2256,
      " мини": 2257,
      "цы": 2258,
      "ене": 2259,
      " ле": 2260,
      " который": 2261,
      "re": 2262,
      "кры": 2263,
      " руб": 2264,
      " ново": 2265,
      "тиче": 2266,
      " которые": 2267,
      "вод": 2268,
      "м.": 2269,
      "ли,": 2270,
      "шение": 2271,
      "прав": 2272,
      "ление": 2273,
      " лю": 2274,
      " 6": 2275,
      "цион": 2276,
      "дут": 2277,
      "зд": 2278,
      " они": 2279,
      "ход": 2280,
      "рит": 2281,
      " прави": 2282,
      "ар": 2283,
      " еще": 2284,
      " лет": 2285,
      " ее": 2286,
      "тру": 2287,
      "вых": 2288,
      " сообщи": 2289,
      " свя": 2290,
      "сли": 2291,
      "форма": 2292,
      "an": 2293,
      " ранее": 2294,
      " вто": 2295,
      " более": 2296,
      " американ": 2297,
      "ью": 2298,
      "мети": 2299,
      " получи": 2300,
      "on": 2301,
      "ников": 2302,
      "яв": 2303,
      "стро": 2304,
      " чет": 2305,
      " испо": 2306,
      "ступ": 2307,
      "вест": 2308,
      "),": 2309,
      "шения": 2310,
      "льта": 2311,
      " ию": 2312,
      "слу": 2313,
      "х,": 2314,
      " 7": 2315,
      "но,": 2316,
      "стве": 2317,
      " органи": 2318,
      " ри": 2319,
      "коно": 2320,
      "три": 2321,
      "дом": 2322,
      "судар": 2323,
      "вые": 2324,
      " би": 2325,
      " воен": 2326,
      " информа": 2327,
      "тре": 2328,
      " согла": 2329,
      " дей": 2330,
      "щен": 2331,
      "коло": 2332,
      "аны": 2333,
      " ар": 2334,
      " рас": 2335,
      "держ": 2336,
      " вз": 2337,
      " суд": 2338,
      " человек": 2339,
      "тин": 2340,
      "зульта": 2341,
      " государ": 2342,
      " долларов": 2343,
      "цу": 2344,
      " результа": 2345,
      "я,": 2346,
      " ис": 2347,
      "ники": 2348,
      "чита": 2349,
      "публи": 2350,
      " m": 2351,
      "клю": 2352,
      "зыва": 2353,
      "в,": 2354,
      " сотру": 2355,
      " отмети": 2356,
      " тысяч": 2357,
      " спе": 2358,
      " гово": 2359,
      " р": 2360,
      " она": 2361,
      " аг": 2362,
      " рублей": 2363,
      " только": 2364,
      "фа": 2365,
      "ением": 2366,
      "казал": 2367,
      " b": 2368,
      " обла": 2369,
      " может": 2370,
      " груп": 2371,
      "онов": 2372,
      "льзо": 2373,
      "спе": 2374,
      "е,": 2375,
      "й,": 2376,
      " явля": 2377,
      " c": 2378,
      " неско": 2379,
      "бра": 2380,
      " пока": 2381,
      " чтобы": 2382,
      " p": 2383,
      " подо": 2384,
      "яс": 2385,
      " года.": 2386,
      "емы": 2387,
      "сков": 2388,
      "вый": 2389,
      " ад": 2390,
      " обви": 2391,
      " спо": 2392,
      "дель": 2393,
      "шего": 2394,
      " кро": 2395,
      " ту": 2396,
      " отно": 2397,
      " компании": 2398,
      " теле": 2399,
      "твер": 2400,
      " свои": 2401,
      " исто": 2402,
      " была": 2403,
      " бан": 2404,
      " сотрудни": 2405,
      "жда": 2406,
      " эти": 2407,
      "пера": 2408,
      " этого": 2409,
      " словам": 2410,
      " офи": 2411,
      "дера": 2412,
      " 8": 2413,
      "-за": 2414,
      " сторо": 2415,
      "пас": 2416,
      " помо": 2417,
      " правитель": 2418,
      "хи": 2419,
      " фе": 2420,
      " тра": 2421,
      "le": 2422,
      " пол": 2423,
      "мини": 2424,
      " президент": 2425,
      " але": 2426,
      "ян": 2427,
      " горо": 2428,
      "вший": 2429,
      " им": 2430,
      " обо": 2431,
      "кла": 2432,
      " други": 2433,
      " f": 2434,
      "ставля": 2435,
      "ети": 2436,
      " которо": 2437,
      "жения": 2438,
      " ло": 2439,
      "ет,": 2440,
      " переда": 2441,
      "пол": 2442,
      " экс": 2443,
      " зна": 2444,
      "х.": 2445,
      " или": 2446,
      " приня": 2447,
      "мента": 2448,
      " организа": 2449,
      "лага": 2450,
      "ar": 2451,
      " около": 2452,
      " будут": 2453,
      "стан": 2454,
      "ми,": 2455,
      "ких": 2456,
      "ональ": 2457,
      " минист": 2458,
      " коман": 2459,
      " иг": 2460,
      "стов": 2461,
      " оста": 2462,
      "ским": 2463,
      " кра": 2464,
      "зе": 2465,
      " n": 2466,
      " страны": 2467,
      "he": 2468,
      "рова": 2469,
      " счита": 2470,
      " долж": 2471,
      "пла": 2472,
      "сло": 2473,
      " ха": 2474,
      "яти": 2475,
      "меча": 2476,
      "ла,": 2477,
      "оне": 2478,
      " руко": 2479,
      " заявил": 2480,
      " агент": 2481,
      " ла": 2482,
      " уда": 2483,
      "or": 2484,
      "бор": 2485,
      "чер": 2486,
      "от": 2487,
      " из-за": 2488,
      " против": 2489,
      " 9": 2490,
      "мент": 2491,
      " право": 2492,
      "ций": 2493,
      "ут": 2494,
      "en": 2495,
      " миллиар": 2496,
      " мы": 2497,
      " наз": 2498,
      " фа": 2499,
      "и,": 2500,
      " дву": 2501,
      " сде": 2502,
      " реги": 2503,
      "ному": 2504,
      "точ": 2505,
      " возмо": 2506,
      " мат": 2507,
      "сла": 2508,
      "али": 2509,
      " сай": 2510,
      "ску": 2511,
      "жение": 2512,
      " один": 2513,
      "al": 2514,
      "вого": 2515,
      "сты": 2516,
      " влади": 2517,
      " процентов": 2518,
      " кроме": 2519,
      " глав": 2520,
      " том,": 2521,
      " пресс": 2522,
      " украины": 2523,
      " лу": 2524,
      " отмеча": 2525,
      "рабо": 2526,
      " два": 2527,
      " произо": 2528,
      "бер": 2529,
      " три": 2530,
      " когда": 2531,
      "ми.": 2532,
      "дол": 2533,
      " ры": 2534,
      "чет": 2535,
      "ложи": 2536,
      "сса": 2537,
      " g": 2538,
      "ье": 2539,
      " извест": 2540,
      "цев": 2541,
      "шло": 2542,
      " уби": 2543,
      "шел": 2544,
      "сно": 2545,
      " несколько": 2546,
      " вопро": 2547,
      " работа": 2548,
      "рак": 2549,
      " если": 2550,
      " 10": 2551,
      "ступи": 2552,
      "чения": 2553,
      " ц": 2554,
      "ется,": 2555,
      "ствия": 2556,
      " президента": 2557,
      "чение": 2558,
      "ции,": 2559,
      "чь": 2560,
      "ним": 2561,
      " гражд": 2562,
      "тельно": 2563,
      "станов": 2564,
      " алекс": 2565,
      " коми": 2566,
      " находи": 2567,
      "нима": 2568,
      "ровать": 2569,
      "ман": 2570,
      "рован": 2571,
      "рито": 2572,
      " пе": 2573,
      "вести": 2574,
      " встре": 2575,
      "грам": 2576,
      "урна": 2577,
      "тро": 2578,
      " сред": 2579,
      "ена": 2580,
      "лани": 2581,
      "смо": 2582,
      " газ": 2583,
      " произ": 2584,
      " официаль": 2585,
      "нения": 2586,
      "ках": 2587,
      " жен": 2588,
      "шей": 2589,
      " d": 2590,
      "at": 2591,
      " данным": 2592,
      " состоя": 2593,
      " интер": 2594,
      "нови": 2595,
      "кре": 2596,
      "стран": 2597,
      " террито": 2598,
      " оп": 2599,
      " является": 2600,
      " журна": 2601,
      " случа": 2602,
      "вели": 2603,
      "логи": 2604,
      " владими": 2605,
      "ности,": 2606,
      " день": 2607,
      " побе": 2608,
      " власти": 2609,
      " част": 2610,
      " пар": 2611,
      " прода": 2612,
      " совет": 2613,
      " рф": 2614,
      "ки,": 2615,
      "щего": 2616,
      " процента": 2617,
      " рай": 2618,
      "каз": 2619,
      " опера": 2620,
      " мар": 2621,
      "ряд": 2622,
      " це": 2623,
      "жден": 2624,
      "анд": 2625,
      "-лет": 2626,
      "рая": 2627,
      " основ": 2628,
      " пресс-": 2629,
      "дь": 2630,
      " фин": 2631,
      "гут": 2632,
      " поги": 2633,
      " чемпи": 2634,
      " кор": 2635,
      " глава": 2636,
      " говори": 2637,
      "ть,": 2638,
      "щей": 2639,
      "кого": 2640,
      "дей": 2641,
      " обе": 2642,
      "нии": 2643,
      " смо": 2644,
      "es": 2645,
      " кри": 2646,
      " ответ": 2647,
      " 15": 2648,
      " украин": 2649,
      "ему": 2650,
      " без": 2651,
      "рон": 2652,
      "вания": 2653,
      " где": 2654,
      "ясни": 2655,
      " парти": 2656,
      "it": 2657,
      " заявил,": 2658,
      " миллионов": 2659,
      " стро": 2660,
      "ва,": 2661,
      " ква": 2662,
      " россия": 2663,
      "хра": 2664,
      "бира": 2665,
      " федера": 2666,
      "ван": 2667,
      " ша": 2668,
      " поз": 2669,
      "кономи": 2670,
      " пла": 2671,
      "шин": 2672,
      " сан": 2673,
      "ro": 2674,
      "ка,": 2675,
      " заяв": 2676,
      "нес": 2677,
      " сент": 2678,
      "ское": 2679,
      "нитель": 2680,
      " выбо": 2681,
      " ян": 2682,
      "ружи": 2683,
      "ний": 2684,
      " гру": 2685,
      " решение": 2686,
      " гу": 2687,
      " тем": 2688,
      " участ": 2689,
      "-2": 2690,
      "щее": 2691,
      " вой": 2692,
      " дж": 2693,
      "фе": 2694,
      " участи": 2695,
      "нению": 2696,
      " возмож": 2697,
      "тор": 2698,
      " тур": 2699,
      "зда": 2700,
      " области": 2701,
      "ледов": 2702,
      "шли": 2703,
      "аний": 2704,
      " призна": 2705,
      "тя": 2706,
      " дела": 2707,
      " тех": 2708,
      "ять": 2709,
      "на,": 2710,
      "народ": 2711,
      " дека": 2712,
      "шо": 2713,
      "тери": 2714,
      " результате": 2715,
      "ссо": 2716,
      "ter": 2717,
      "льного": 2718,
      "нер": 2719,
      " стои": 2720,
      "шении": 2721,
      " ше": 2722,
      "вает": 2723,
      " сист": 2724,
      " декаб": 2725,
      "вших": 2726,
      " окт": 2727,
      "ss": 2728,
      " –": 2729,
      " фран": 2730,
      " двух": 2731,
      "ющий": 2732,
      "кси": 2733,
      " w": 2734,
      " ссы": 2735,
      "зн": 2736,
      " тор": 2737,
      " име": 2738,
      " гос": 2739,
      "анима": 2740,
      "анию": 2741,
      " чере": 2742,
      " мест": 2743,
      " которая": 2744,
      "ce": 2745,
      "дели": 2746,
      "писа": 2747,
      "вая": 2748,
      "гли": 2749,
      "виа": 2750,
      "лены": 2751,
      " место": 2752,
      "ремен": 2753,
      " риа": 2754,
      " предпо": 2755,
      "скую": 2756,
      "ющих": 2757,
      " москов": 2758,
      " изд": 2759,
      " бое": 2760,
      " янва": 2761,
      "ции.": 2762,
      " экономи": 2763,
      " ти": 2764,
      " 12": 2765,
      " уго": 2766,
      " наци": 2767,
      "министра": 2768,
      " след": 2769,
      "вшего": 2770,
      " экспер": 2771,
      "е.": 2772,
      "лено": 2773,
      "ших": 2774,
      "тен": 2775,
      " ана": 2776,
      " компания": 2777,
      "но-": 2778,
      "к,": 2779,
      " финан": 2780,
      " быть": 2781,
      "торы": 2782,
      "ют,": 2783,
      " продол": 2784,
      " задерж": 2785,
      " обна": 2786,
      " голо": 2787,
      " сей": 2788,
      " свою": 2789,
      " безо": 2790,
      " оче": 2791,
      " доку": 2792,
      " виде": 2793,
      "кие": 2794,
      " апре": 2795,
      "ки.": 2796,
      " международ": 2797,
      " бли": 2798,
      "пута": 2799,
      " которых": 2800,
      " пло": 2801,
      " сем": 2802,
      "спубли": 2803,
      " необ": 2804,
      "щения": 2805,
      "лось,": 2806,
      " откры": 2807,
      "держа": 2808,
      "кну": 2809,
      " дело": 2810,
      " оказа": 2811,
      "рд": 2812,
      " граждан": 2813,
      "мени": 2814,
      "ректо": 2815,
      "час": 2816,
      " причи": 2817,
      " програм": 2818,
      "ую": 2819,
      "дова": 2820,
      " эк": 2821,
      " образо": 2822,
      "лле": 2823,
      "стей": 2824,
      " вме": 2825,
      " круп": 2826,
      " стан": 2827,
      "нет": 2828,
      " республи": 2829,
      "ору": 2830,
      "кта": 2831,
      "вым": 2832,
      "ступа": 2833,
      "ответ": 2834,
      " вс": 2835,
      " последни": 2836,
      " стать": 2837,
      " соб": 2838,
      "прави": 2839,
      " филь": 2840,
      " том": 2841,
      " этот": 2842,
      " четвер": 2843,
      "я.": 2844,
      " заклю": 2845,
      "из": 2846,
      " мет": 2847,
      "туа": 2848,
      "рей": 2849,
      " сов": 2850,
      " них": 2851,
      " над": 2852,
      " александ": 2853,
      "цо": 2854,
      " the": 2855,
      "лич": 2856,
      " занима": 2857,
      " запре": 2858,
      " ги": 2859,
      " авгу": 2860,
      "стя": 2861,
      "и.": 2862,
      "мни": 2863,
      "лем": 2864,
      " фор": 2865,
      " утвер": 2866,
      "евра": 2867,
      "рий": 2868,
      " безопас": 2869,
      "ун": 2870,
      " ско": 2871,
      "кту": 2872,
      " ссыл": 2873,
      "ким": 2874,
      " спи": 2875,
      " меся": 2876,
      " свое": 2877,
      " год": 2878,
      "пад": 2879,
      "льной": 2880,
      " через": 2881,
      "еры": 2882,
      "вом": 2883,
      "пусти": 2884,
      "бур": 2885,
      " ду": 2886,
      "него": 2887,
      " источ": 2888,
      " 11": 2889,
      " преступ": 2890,
      " плани": 2891,
      " поч": 2892,
      " поло": 2893,
      " соответ": 2894,
      "ческой": 2895,
      " всего": 2896,
      " муж": 2897,
      " сбор": 2898,
      "ic": 2899,
      " защи": 2900,
      " нару": 2901,
      " февра": 2902,
      " авиа": 2903,
      "лении": 2904,
      "oo": 2905,
      "тере": 2906,
      "т,": 2907,
      "ходя": 2908,
      "льно": 2909,
      " доба": 2910,
      " сейчас": 2911,
      "утбо": 2912,
      "вое": 2913,
      " журнали": 2914,
      " есть": 2915,
      "st": 2916,
      " ситуа": 2917,
      " ссылкой": 2918,
      " использо": 2919,
      " москве": 2920,
      " депута": 2921,
      "ка.": 2922,
      " сказал": 2923,
      " пос": 2924,
      " брит": 2925,
      " четы": 2926,
      "ьер": 2927,
      " шта": 2928,
      " футбо": 2929,
      " москвы": 2930,
      " ему": 2931,
      " стал": 2932,
      "ю,": 2933,
      "ра,": 2934,
      "мости": 2935,
      " подчер": 2936,
      " напо": 2937,
      "цией": 2938,
      " самы": 2939,
      " тран": 2940,
      " прем": 2941,
      " словам,": 2942,
      " дет": 2943,
      " управ": 2944,
      " которой": 2945,
      "вала": 2946,
      " связи": 2947,
      " необходи": 2948,
      "мость": 2949,
      " проек": 2950,
      " этой": 2951,
      " состави": 2952,
      "льный": 2953,
      "чу": 2954,
      " сра": 2955,
      " могут": 2956,
      "тия": 2957,
      "тов,": 2958,
      "датель": 2959,
      " неф": 2960,
      "моби": 2961,
      " перед": 2962,
      "ждения": 2963,
      " вос": 2964,
      "рори": 2965,
      "гов": 2966,
      " отказа": 2967,
      "лом": 2968,
      " города": 2969,
      " настоя": 2970,
      " распо": 2971,
      " совер": 2972,
      "лия": 2973,
      "год": 2974,
      " обще": 2975,
      "кет": 2976,
      "ья": 2977,
      "ницу": 2978,
      " кре": 2979,
      " ито": 2980,
      "к.": 2981,
      "ra": 2982,
      "ров.": 2983,
      " бра": 2984,
      "рия": 2985,
      "зан": 2986,
      " кита": 2987,
      " можно": 2988,
      " созд": 2989,
      " высо": 2990,
      " разме": 2991,
      "с.": 2992,
      " уголов": 2993,
      " передает": 2994,
      " своей": 2995,
      " сро": 2996,
      "льных": 2997,
      "прияти": 2998,
      "ru": 2999,
      "лин": 3000,
      "интер": 3001,
      " мин": 3002,
      " 30": 3003,
      "нут": 3004,
      " сдела": 3005,
      " режи": 3006,
      "чены": 3007,
      " зд": 3008,
      "ющие": 3009,
      " ходе": 3010,
      "газ": 3011,
      " четыре": 3012,
      " прошло": 3013,
      " неза": 3014,
      " числе": 3015,
      "с,": 3016,
      " сы": 3017,
      " которого": 3018,
      "нен": 3019,
      " рын": 3020,
      " неко": 3021,
      " служ": 3022,
      " имен": 3023,
      " самолет": 3024,
      " аре": 3025,
      "раз": 3026,
      "мой": 3027,
      " автомоби": 3028,
      " сентября": 3029,
      " разви": 3030,
      " опубли": 3031,
      " года,": 3032,
      "рует": 3033,
      " британ": 3034,
      " сайте": 3035,
      " дви": 3036,
      "нич": 3037,
      " кан": 3038,
      " пиш": 3039,
      "сан": 3040,
      "ностью": 3041,
      " новости": 3042,
      "il": 3043,
      "скому": 3044,
      "шь": 3045,
      "ческих": 3046,
      " 25": 3047,
      " взры": 3048,
      " дома": 3049,
      " бю": 3050,
      "нова": 3051,
      "вание": 3052,
      "мон": 3053,
      "кру": 3054,
      " кры": 3055,
      "воз": 3056,
      " марта": 3057,
      " l": 3058,
      "тить": 3059,
      "ров,": 3060,
      " очере": 3061,
      " вели": 3062,
      "тр": 3063,
      " директо": 3064,
      "рату": 3065,
      " стало": 3066,
      "над": 3067,
      "чно": 3068,
      " националь": 3069,
      "ства,": 3070,
      " позво": 3071,
      "итель": 3072,
      " женщи": 3073,
      "нем": 3074,
      " агентство": 3075,
      "ган": 3076,
      " i": 3077,
      "вд": 3078,
      " эта": 3079,
      "чень": 3080,
      " составля": 3081,
      " чемпиона": 3082,
      "раи": 3083,
      "бя": 3084,
      "ведения": 3085,
      " законо": 3086,
      " миллиона": 3087,
      " аль": 3088,
      "работ": 3089,
      " полити": 3090,
      " зо": 3091,
      " государствен": 3092,
      " ген": 3093,
      " администра": 3094,
      " убий": 3095,
      " завер": 3096,
      "вле": 3097,
      "бой": 3098,
      "н,": 3099,
      " сни": 3100,
      "цей": 3101,
      "на.": 3102,
      "служ": 3103,
      " октября": 3104,
      " испол": 3105,
      " 18": 3106,
      "страда": 3107,
      "йти": 3108,
      " нет": 3109,
      "тому": 3110,
      "ра.": 3111,
      "бан": 3112,
      " территории": 3113,
      " рей": 3114,
      " больше": 3115,
      "ваться": 3116,
      " частности,": 3117,
      " декабря": 3118,
      " стороны": 3119,
      " мнению": 3120,
      " клу": 3121,
      " 14": 3122,
      "фер": 3123,
      " пострада": 3124,
      "гро": 3125,
      " часть": 3126,
      " добави": 3127,
      "щение": 3128,
      "пози": 3129,
      " парла": 3130,
      " террори": 3131,
      " июля": 3132,
      " h": 3133,
      "анием": 3134,
      "ект": 3135,
      " подоз": 3136,
      "тных": 3137,
      " прове": 3138,
      " ноября": 3139,
      " израи": 3140,
      " бело": 3141,
      " эле": 3142,
      "рах": 3143,
      "лена": 3144,
      " представитель": 3145,
      " фо": 3146,
      " среди": 3147,
      " ну": 3148,
      " много": 3149,
      " сообщил": 3150,
      " сам": 3151,
      " следу": 3152,
      "интерфа": 3153,
      " намер": 3154,
      "s.": 3155,
      "н.": 3156,
      " января": 3157,
      " проце": 3158,
      " мужчи": 3159,
      "ства.": 3160,
      " вне": 3161,
      " 13": 3162,
      " помощ": 3163,
      " июня": 3164,
      " 16": 3165,
      "ске": 3166,
      "фо": 3167,
      "соб": 3168,
      "дж": 3169,
      " всех": 3170,
      " исс": 3171,
      "-1": 3172,
      " re": 3173,
      "мов": 3174,
      " согласно": 3175,
      " проку": 3176,
      " созда": 3177,
      "ябре": 3178,
      " тогда": 3179,
      " сум": 3180,
      " проб": 3181,
      " реши": 3182,
      "тали": 3183,
      "ческого": 3184,
      " уточ": 3185,
      " владимир": 3186,
      "сед": 3187,
      " проис": 3188,
      "ложен": 3189,
      "рту": 3190,
      "кий": 3191,
      " российских": 3192,
      " подчеркну": 3193,
      " ино": 3194,
      " деся": 3195,
      " показа": 3196,
      "строй": 3197,
      "роны": 3198,
      " появи": 3199,
      "пыт": 3200,
      "el": 3201,
      " апреля": 3202,
      "мп": 3203,
      " него": 3204,
      " руковод": 3205,
      "ками": 3206,
      "ew": 3207,
      " 199": 3208,
      "един": 3209,
      " уров": 3210,
      "шая": 3211,
      " воору": 3212,
      " безопасности": 3213,
      "щении": 3214,
      "вра": 3215,
      " пода": 3216,
      "вшие": 3217,
      " ци": 3218,
      " руководи": 3219,
      " году.": 3220,
      "етер": 3221,
      "честве": 3222,
      " августа": 3223,
      "кова": 3224,
      " обя": 3225,
      " увели": 3226,
      "пей": 3227,
      "вую": 3228,
      " себя": 3229,
      " предо": 3230,
      "ков,": 3231,
      "вают": 3232,
      " миллиарда": 3233,
      " стран": 3234,
      " догово": 3235,
      " конце": 3236,
      " других": 3237,
      " верси": 3238,
      "щих": 3239,
      " площа": 3240,
      "кана": 3241,
      "тора": 3242,
      " пишет": 3243,
      " 17": 3244,
      "тиво": 3245,
      " говорится": 3246,
      " действи": 3247,
      " фон": 3248,
      " гер": 3249,
      " мл": 3250,
      " премьер": 3251,
      " доро": 3252,
      "чество": 3253,
      "мина": 3254,
      "тов.": 3255,
      " потре": 3256,
      " послед": 3257,
      " ге": 3258,
      "стру": 3259,
      "л.": 3260,
      "тета": 3261,
      " пользо": 3262,
      "од": 3263,
      " колле": 3264,
      " очень": 3265,
      " должны": 3266,
      " иск": 3267,
      "ты.": 3268,
      "хов": 3269,
      "-то": 3270,
      " объяви": 3271,
      "лаго": 3272,
      " министер": 3273,
      " кана": 3274,
      "шла": 3275,
      " видео": 3276,
      "ние": 3277,
      " подтвер": 3278,
      "дви": 3279,
      " центра": 3280,
      "слови": 3281,
      "циа": 3282,
      " кур": 3283,
      " поку": 3284,
      " рам": 3285,
      " пы": 3286,
      "пло": 3287,
      " напомни": 3288,
      "тем": 3289,
      " ради": 3290,
      "ссии": 3291,
      " рублей.": 3292,
      " ведом": 3293,
      "зя": 3294,
      " мно": 3295,
      " строитель": 3296,
      " осу": 3297,
      " части": 3298,
      " долларов.": 3299,
      "джет": 3300,
      " погиб": 3301,
      "той": 3302,
      " даже": 3303,
      " дея": 3304,
      " мэ": 3305,
      "кам": 3306,
      " закон": 3307,
      " биз": 3308,
      "т.": 3309,
      " пов": 3310,
      "да,": 3311,
      "казыва": 3312,
      " зем": 3313,
      " утвержда": 3314,
      " матери": 3315,
      " контро": 3316,
      " момент": 3317,
      "та,": 3318,
      " провер": 3319,
      "ссе": 3320,
      "ou": 3321,
      "скими": 3322,
      " «в": 3323,
      " мене": 3324,
      " услови": 3325,
      " тру": 3326,
      " собствен": 3327,
      "явля": 3328,
      " треть": 3329,
      " первый": 3330,
      " своих": 3331,
      " февраля": 3332,
      "вается": 3333,
      " хи": 3334,
      " пожа": 3335,
      " рассказа": 3336,
      "станови": 3337,
      " моло": 3338,
      "ропо": 3339,
      " пен": 3340,
      "ты,": 3341,
      "-п": 3342,
      " некоторы": 3343,
      " перегово": 3344,
      " дми": 3345,
      " попа": 3346,
      " заме": 3347,
      "ed": 3348,
      " нико": 3349,
      " лишь": 3350,
      "чной": 3351,
      "-й": 3352,
      "жды": 3353,
      "нение": 3354,
      " сери": 3355,
      " информации": 3356,
      "ерт": 3357,
      " ря": 3358,
      " огра": 3359,
      "вно": 3360,
      "держи": 3361,
      " игра": 3362,
      " ожи": 3363,
      " именно": 3364,
      "et": 3365,
      " времени": 3366,
      " выра": 3367,
      "ева": 3368,
      " трех": 3369,
      "енера": 3370,
      " участие": 3371,
      "ством": 3372,
      "ным,": 3373,
      " свобо": 3374,
      "вока": 3375,
      " дмитри": 3376,
      " преду": 3377,
      " удалось": 3378,
      "ляр": 3379,
      "зни": 3380,
      "ровал": 3381,
      "ери": 3382,
      " смер": 3383,
      "щая": 3384,
      " ху": 3385,
      " то,": 3386,
      "вари": 3387,
      "шед": 3388,
      " пути": 3389,
      "циали": 3390,
      " аэ": 3391,
      " представители": 3392,
      " расследов": 3393,
      "щий": 3394,
      "г,": 3395,
      "етербур": 3396,
      " недо": 3397,
      "кции": 3398,
      "чить": 3399,
      " путин": 3400,
      " сказа": 3401,
      "ем,": 3402,
      " луч": 3403,
      "ститу": 3404,
      "интерфакс": 3405,
      " счет": 3406,
      "сут": 3407,
      "вид": 3408,
      "om": 3409,
      "рую": 3410,
      " сообщается": 3411,
      "ровали": 3412,
      " суще": 3413,
      "р,": 3414,
      " иностран": 3415,
      "..": 3416,
      " одного": 3417,
      " российского": 3418,
      " кило": 3419,
      "стана": 3420,
      " оружи": 3421,
      " друго": 3422,
      " элект": 3423,
      " назна": 3424,
      " чер": 3425,
      " российской": 3426,
      " обы": 3427,
      " поддерж": 3428,
      "ник,": 3429,
      " креди": 3430,
      " генера": 3431,
      " вра": 3432,
      " кар": 3433,
      " поль": 3434,
      " вместе": 3435,
      "шенко": 3436,
      " 22": 3437,
      "ков.": 3438,
      " дости": 3439,
      " 1,": 3440,
      "рос": 3441,
      " бюджет": 3442,
      " пользова": 3443,
      " 2011": 3444,
      " тем,": 3445,
      " требо": 3446,
      " 2009": 3447,
      "зии": 3448,
      " котором": 3449,
      "дида": 3450,
      " начале": 3451,
      " бло": 3452,
      " второй": 3453,
      " должен": 3454,
      " фото": 3455,
      " коли": 3456,
      " продолжа": 3457,
      " мира": 3458,
      "ания,": 3459,
      " европей": 3460,
      "ях": 3461,
      "ено": 3462,
      " политиче": 3463,
      " 2010": 3464,
      "ема": 3465,
      "стри": 3466,
      " чу": 3467,
      "но.": 3468,
      " контра": 3469,
      " опре": 3470,
      " настоящее": 3471,
      " министр": 3472,
      "хва": 3473,
      "гей": 3474,
      " город": 3475,
      "графи": 3476,
      " главы": 3477,
      " даль": 3478,
      "ing": 3479,
      " предполага": 3480,
      " тысячи": 3481,
      "ены": 3482,
      " установ": 3483,
      " деятель": 3484,
      " маши": 3485,
      " зако": 3486,
      " кандида": 3487,
      "ший": 3488,
      " финансо": 3489,
      " отношении": 3490,
      " ира": 3491,
      "as": 3492,
      " кто": 3493,
      " одной": 3494,
      "кти": 3495,
      " лидер": 3496,
      " рамках": 3497,
      "рес": 3498,
      "шее": 3499,
      " шко": 3500,
      "льные": 3501,
      "лим": 3502,
      "ане": 3503,
      " прав": 3504,
      " ал": 3505,
      " 2012": 3506,
      " александр": 3507,
      " рассказал": 3508,
      " отметил,": 3509,
      "лья": 3510,
      " выступа": 3511,
      " проводи": 3512,
      "смот": 3513,
      " new": 3514,
      "ницы": 3515,
      " 2008": 3516,
      "парта": 3517,
      " 2014": 3518,
      "рева": 3519,
      " стали": 3520,
      " обеспе": 3521,
      " газета": 3522,
      " 24": 3523,
      " ракет": 3524,
      " миллиардов": 3525,
      "сили": 3526,
      " план": 3527,
      "спорт": 3528,
      " называ": 3529,
      "ния": 3530,
      " нор": 3531,
      "жай": 3532,
      "ходит": 3533,
      "ке,": 3534,
      " анд": 3535,
      " публи": 3536,
      " ули": 3537,
      "кое": 3538,
      " получил": 3539,
      " 21": 3540,
      "кро": 3541,
      " интернет": 3542,
      " производ": 3543,
      " прекра": 3544,
      "та.": 3545,
      " действия": 3546,
      " вклю": 3547,
      " зан": 3548,
      " пыта": 3549,
      " суде": 3550,
      " находится": 3551,
      " оппози": 3552,
      " конф": 3553,
      "жу": 3554,
      " коро": 3555,
      " пробле": 3556,
      " стране": 3557,
      "нице": 3558,
      " in": 3559,
      " мвд": 3560,
      "матри": 3561,
      "am": 3562,
      "бро": 3563,
      " специали": 3564,
      " премьер-": 3565,
      " угро": 3566,
      " многи": 3567,
      "нь": 3568,
      "тар": 3569,
      " предложи": 3570,
      " пози": 3571,
      " правительство": 3572,
      "йдет": 3573,
      " человек.": 3574,
      " таким": 3575,
      " обвиня": 3576,
      " своего": 3577,
      " белору": 3578,
      " втор": 3579,
      "жении": 3580,
      " конку": 3581,
      " «а": 3582,
      " поне": 3583,
      "в.": 3584,
      "ке.": 3585,
      " пери": 3586,
      " пят": 3587,
      " сергей": 3588,
      "готов": 3589,
      "шие": 3590,
      " сокра": 3591,
      " успе": 3592,
      " ника": 3593,
      " работы": 3594,
      "охра": 3595,
      "вич": 3596,
      " суб": 3597,
      " благо": 3598,
      " полицей": 3599,
      " интере": 3600,
      " там": 3601,
      "циден": 3602,
      " течение": 3603,
      "нача": 3604,
      "ствие": 3605,
      "цени": 3606,
      " партии": 3607,
      "чных": 3608,
      " направ": 3609,
      " почти": 3610,
      " организации": 3611,
      "еди": 3612,
      " россии.": 3613,
      " пригово": 3614,
      " предсе": 3615,
      "дить": 3616,
      " инциден": 3617,
      " компле": 3618,
      " правоохра": 3619,
      " мед": 3620,
      "щем": 3621,
      " он.": 3622,
      " подоб": 3623,
      "емо": 3624,
      "пара": 3625,
      "них": 3626,
      " проте": 3627,
      " столи": 3628,
      " возбу": 3629,
      " противо": 3630,
      " докумен": 3631,
      " телекана": 3632,
      " конфли": 3633,
      " подпи": 3634,
      " разработ": 3635,
      " чинов": 3636,
      " e": 3637,
      " 23": 3638,
      " насе": 3639,
      "надле": 3640,
      " велико": 3641,
      "комп": 3642,
      " 0": 3643,
      "брит": 3644,
      "мии": 3645,
      " повы": 3646,
      " окру": 3647,
      "кса": 3648,
      " «с": 3649,
      " выпол": 3650,
      " ожида": 3651,
      " человек,": 3652,
      " принадле": 3653,
      " пять": 3654,
      " боеви": 3655,
      "ющего": 3656,
      "виси": 3657,
      "im": 3658,
      " нас": 3659,
      "кин": 3660,
      " тя": 3661,
      " ближай": 3662,
      "дии": 3663,
      " получа": 3664,
      "зации": 3665,
      " «по": 3666,
      "ol": 3667,
      " прод": 3668,
      " находя": 3669,
      " задержан": 3670,
      " закры": 3671,
      " миха": 3672,
      " бывший": 3673,
      "й.": 3674,
      " обществен": 3675,
      " мая": 3676,
      "зер": 3677,
      "жной": 3678,
      " анти": 3679,
      " понедель": 3680,
      " погибли": 3681,
      " борь": 3682,
      "вобо": 3683,
      " кли": 3684,
      "еха": 3685,
      " потер": 3686,
      "ил": 3687,
      " мину": 3688,
      "is": 3689,
      " герм": 3690,
      "рко": 3691,
      " наза": 3692,
      "ли.": 3693,
      " 100": 3694,
      " 50": 3695,
      " постав": 3696,
      " меди": 3697,
      " учены": 3698,
      "ющей": 3699,
      " гото": 3700,
      "шем": 3701,
      "лай": 3702,
      " предло": 3703,
      " собра": 3704,
      " выз": 3705,
      "стои": 3706,
      " нем": 3707,
      " обрати": 3708,
      " способ": 3709,
      " адвока": 3710,
      " сми": 3711,
      " случае": 3712,
      " мен": 3713,
      " миро": 3714,
      " российский": 3715,
      " сту": 3716,
      "воль": 3717,
      " пресс-служ": 3718,
      "ново": 3719,
      " неиз": 3720,
      " верну": 3721,
      " соответству": 3722,
      "-летний": 3723,
      "дра": 3724,
      " «о": 3725,
      "ктор": 3726,
      "ion": 3727,
      " сви": 3728,
      "ферен": 3729,
      "ку,": 3730,
      " 2015": 3731,
      " начала": 3732,
      "нец": 3733,
      "ссажи": 3734,
      " ск": 3735,
      "тон": 3736,
      "гам": 3737,
      " отде": 3738,
      " великобрит": 3739,
      " пун": 3740,
      " япо": 3741,
      "лимпи": 3742,
      " стоимость": 3743,
      " обсу": 3744,
      "чей": 3745,
      "няя": 3746,
      " o": 3747,
      " затем": 3748,
      " материа": 3749,
      " специаль": 3750,
      "еты": 3751,
      " управления": 3752,
      " группы": 3753,
      " очередь": 3754,
      "ктиче": 3755,
      " приз": 3756,
      " своем": 3757,
      " составляет": 3758,
      " v": 3759,
      " издание": 3760,
      "телем": 3761,
      " прибы": 3762,
      " другие": 3763,
      "гре": 3764,
      " пассажи": 3765,
      " качестве": 3766,
      "un": 3767,
      "сколь": 3768,
      " кварти": 3769,
      "правля": 3770,
      " значи": 3771,
      "ствии": 3772,
      "блю": 3773,
      " пример": 3774,
      " трен": 3775,
      " поэ": 3776,
      "шим": 3777,
      " проду": 3778,
      " тот": 3779,
      " прокурату": 3780,
      " спа": 3781,
      " правоохранитель": 3782,
      " роди": 3783,
      "сом": 3784,
      " разре": 3785,
      " исклю": 3786,
      "зов": 3787,
      " среду": 3788,
      " пост": 3789,
      " наде": 3790,
      "кая": 3791,
      " отметил": 3792,
      "ница": 3793,
      " стала": 3794,
      " восто": 3795,
      " новый": 3796,
      "вен": 3797,
      "тан": 3798,
      " распро": 3799,
      "перь": 3800,
      " свой": 3801,
      " нового": 3802,
      " нало": 3803,
      " месте": 3804,
      " сборной": 3805,
      "тно": 3806,
      "чного": 3807,
      " напомним,": 3808,
      " замести": 3809,
      " соста": 3810,
      " засед": 3811,
      " тю": 3812,
      "конча": 3813,
      " измен": 3814,
      " аб": 3815,
      "обра": 3816,
      " вопрос": 3817,
      "р.": 3818,
      "ны,": 3819,
      " 26": 3820,
      " совета": 3821,
      " времен": 3822,
      "там": 3823,
      " сезо": 3824,
      " россии,": 3825,
      "веден": 3826,
      " которое": 3827,
      "ндо": 3828,
      "ете": 3829,
      " 27": 3830,
      " 28": 3831,
      " страна": 3832,
      " социаль": 3833,
      " правительства": 3834,
      "ню": 3835,
      " карти": 3836,
      " спу": 3837,
      " кла": 3838,
      " буду": 3839,
      "лл": 3840,
      " госду": 3841,
      "ез": 3842,
      " 2016": 3843,
      " исследов": 3844,
      " посколь": 3845,
      " принима": 3846,
      " аф": 3847,
      " игро": 3848,
      "писал": 3849,
      " сою": 3850,
      "хода": 3851,
      " городе": 3852,
      " большо": 3853,
      " этих": 3854,
      " ши": 3855,
      " мили": 3856,
      " поясни": 3857,
      "годня": 3858,
      " акти": 3859,
      " теперь": 3860,
      " пятницу": 3861,
      " дня": 3862,
      " семь": 3863,
      "рию": 3864,
      "дой": 3865,
      " голосов": 3866,
      "рования": 3867,
      "ch": 3868,
      " районе": 3869,
      " права": 3870,
      " российские": 3871,
      " «газ": 3872,
      " 2013": 3873,
      " израиль": 3874,
      " сня": 3875,
      "ress": 3876,
      "ху": 3877,
      " чего": 3878,
      " китай": 3879,
      "вин": 3880,
      " получили": 3881,
      " север": 3882,
      " реали": 3883,
      "лением": 3884,
      "лон": 3885,
      " суда": 3886,
      " л": 3887,
      " актив": 3888,
      "стин": 3889,
      " реко": 3890,
      "шений": 3891,
      " бизнес": 3892,
      " проект": 3893,
      " две": 3894,
      "боль": 3895,
      " поскольку": 3896,
      "менти": 3897,
      " планиру": 3898,
      "раб": 3899,
      " музы": 3900,
      "ческие": 3901,
      "ствовать": 3902,
      "01": 3903,
      " крупней": 3904,
      "вшей": 3905,
      "ждение": 3906,
      " объек": 3907,
      " людей": 3908,
      " выступи": 3909,
      " жизни": 3910,
      "чный": 3911,
      "ci": 3912,
      " \"а": 3913,
      "росси": 3914,
      " уни": 3915,
      "емых": 3916,
      " сотрудники": 3917,
      "фф": 3918,
      " информацию": 3919,
      " собира": 3920,
      " километ": 3921,
      "лений": 3922,
      " турни": 3923,
      "вью": 3924,
      "рое": 3925,
      " оцени": 3926,
      " выпу": 3927,
      " анали": 3928,
      " назад": 3929,
      "чные": 3930,
      "ir": 3931,
      "ленных": 3932,
      "мыш": 3933,
      "не,": 3934,
      "читы": 3935,
      " уч": 3936,
      "таль": 3937,
      "нд": 3938,
      " жа": 3939,
      " команды": 3940,
      " россиян": 3941,
      "тки": 3942,
      " неизвест": 3943,
      "s,": 3944,
      "дил": 3945,
      " шо": 3946,
      " ответствен": 3947,
      " отра": 3948,
      " олимпи": 3949,
      " обнаружи": 3950,
      "лла": 3951,
      " аэропо": 3952,
      "ad": 3953,
      "лета": 3954,
      " срав": 3955,
      " году,": 3956,
      " посе": 3957,
      " лондо": 3958,
      "чил": 3959,
      " y": 3960,
      " пор": 3961,
      " обороны": 3962,
      "нил": 3963,
      " так,": 3964,
      " сообщалось,": 3965,
      "берна": 3966,
      " последние": 3967,
      "лки": 3968,
      " освобо": 3969,
      "мест": 3970,
      " вооружен": 3971,
      "ва.": 3972,
      " кру": 3973,
      " спец": 3974,
      "сил": 3975,
      " кино": 3976,
      "ку.": 3977,
      " газа": 3978,
      "тельной": 3979,
      " идет": 3980,
      "ьез": 3981,
      "обре": 3982,
      " «у": 3983,
      " ограни": 3984,
      " места": 3985,
      " государства": 3986,
      " пет": 3987,
      "дан": 3988,
      " работу": 3989,
      "са,": 3990,
      "част": 3991,
      "ток": 3992,
      " одно": 3993,
      " привле": 3994,
      " детей": 3995,
      " большин": 3996,
      " еди": 3997,
      "ющим": 3998,
      "мом": 3999,
      " фун": 4000,
      " допол": 4001,
      " стол": 4002,
      " неме": 4003,
      "дете": 4004,
      " бес": 4005,
      " действу": 4006,
      "-а": 4007,
      " интервью": 4008,
      " оба": 4009,
      "рин": 4010,
      " следствен": 4011,
      " предприяти": 4012,
      "кци": 4013,
      " эту": 4014,
      " род": 4015,
      " мень": 4016,
      "пада": 4017,
      " сол": 4018,
      "лению": 4019,
      "зин": 4020,
      "ace": 4021,
      " \"интерфакс": 4022,
      "сою": 4023,
      " францу": 4024,
      "ры,": 4025,
      "крета": 4026,
      "лез": 4027,
      " возгла": 4028,
      " энер": 4029,
      "шую": 4030,
      " исп": 4031,
      " отстав": 4032,
      "нологи": 4033,
      " 2018": 4034,
      " произошел": 4035,
      "вор": 4036,
      "дили": 4037,
      "обе": 4038,
      "щие": 4039,
      "ri": 4040,
      " дмитрий": 4041,
      " 2007": 4042,
      " неде": 4043,
      " ини": 4044,
      "ровы": 4045,
      " системы": 4046,
      " попу": 4047,
      "льту": 4048,
      " пяти": 4049,
      " непо": 4050,
      " ог": 4051,
      " бар": 4052,
      " напад": 4053,
      "ред": 4054,
      " просто": 4055,
      " опреде": 4056,
      "лит": 4057,
      "ческий": 4058,
      " поэтому": 4059,
      " спорт": 4060,
      " подозрева": 4061,
      " назвал": 4062,
      " отмечает": 4063,
      "uter": 4064,
      " «на": 4065,
      " внут": 4066,
      " лет.": 4067,
      "дина": 4068,
      " наблю": 4069,
      " выс": 4070,
      " мя": 4071,
      " тай": 4072,
      " массо": 4073,
      " группа": 4074,
      "верси": 4075,
      "тами": 4076,
      " несколь": 4077,
      "лев": 4078,
      "-го": 4079,
      " данные": 4080,
      " известно,": 4081,
      " превы": 4082,
      " возду": 4083,
      " комитета": 4084,
      " наи": 4085,
      " предлага": 4086,
      "тельных": 4087,
      " нау": 4088,
      "не.": 4089,
      " 29": 4090,
      "веро": 4091,
      " состав": 4092,
      "ot": 4093,
      " вице": 4094,
      "того": 4095,
      " сере": 4096,
      " подготов": 4097,
      "ген": 4098,
      "жных": 4099,
      "били": 4100,
      " вним": 4101,
      " обнару": 4102,
      " матча": 4103,
      " деньги": 4104,
      " дней": 4105,
      " заня": 4106,
      " количество": 4107,
      " май": 4108,
      "тие": 4109,
      " сирии": 4110,
      " 40": 4111,
      " сообщили": 4112,
      " возможность": 4113,
      " оцен": 4114,
      "муще": 4115,
      " стре": 4116,
      " капи": 4117,
      " макси": 4118,
      " обвинения": 4119,
      "вез": 4120,
      " делу": 4121,
      " пенси": 4122,
      " люди": 4123,
      " сет": 4124,
      " службы": 4125,
      " сегодня": 4126,
      " reuter": 4127,
      " ны": 4128,
      " пои": 4129,
      "работа": 4130,
      " поки": 4131,
      " выпла": 4132,
      " тяже": 4133,
      " хоро": 4134,
      " стар": 4135,
      "мышлен": 4136,
      "прово": 4137,
      " рекла": 4138,
      " вв": 4139,
      " поми": 4140,
      " рейтин": 4141,
      " человека": 4142,
      " акций": 4143,
      " избира": 4144,
      "ay": 4145,
      "смен": 4146,
      "чки": 4147,
      " k": 4148,
      " одним": 4149,
      "роприяти": 4150,
      " поме": 4151,
      " \"о": 4152,
      "первые": 4153,
      " губерна": 4154,
      "тельства": 4155,
      " жерт": 4156,
      "ности.": 4157,
      "ны.": 4158,
      " фина": 4159,
      "телям": 4160,
      " великобритании": 4161,
      "езд": 4162,
      " число": 4163,
      "тили": 4164,
      " представля": 4165,
      " ней": 4166,
      " мероприяти": 4167,
      " опубликов": 4168,
      " оон": 4169,
      " ныне": 4170,
      " ап": 4171,
      " должна": 4172,
      " внутрен": 4173,
      " приобре": 4174,
      " новых": 4175,
      " \"с": 4176,
      " «э": 4177,
      " сша,": 4178,
      " опас": 4179,
      " заявление": 4180,
      " началь": 4181,
      "ю.": 4182,
      ".ru": 4183,
      " бере": 4184,
      "доб": 4185,
      "мя": 4186,
      " поро": 4187,
      " акции": 4188,
      " серьез": 4189,
      "ведение": 4190,
      "ть.": 4191,
      " 2,": 4192,
      " средств": 4193,
      " ава": 4194,
      "пора": 4195,
      " выи": 4196,
      "смотря": 4197,
      " итогам": 4198,
      "номо": 4199,
      " свидете": 4200,
      "зор": 4201,
      " подро": 4202,
      " впервые": 4203,
      " j": 4204,
      " заверши": 4205,
      "у,": 4206,
      "те.": 4207,
      " особ": 4208,
      " сети": 4209,
      " вал": 4210,
      "гно": 4211,
      "чего": 4212,
      " станет": 4213,
      "ко,": 4214,
      " готов": 4215,
      "нили": 4216,
      " регу": 4217,
      " которую": 4218,
      "us": 4219,
      " доста": 4220,
      " увер": 4221,
      "рами": 4222,
      "лана": 4223,
      " заявля": 4224,
      "пли": 4225,
      " производи": 4226,
      " медве": 4227,
      "защи": 4228,
      " st": 4229,
      "стер": 4230,
      " уголовное": 4231,
      " обяза": 4232,
      " 2017": 4233,
      " \"в": 4234,
      " сте": 4235,
      " расположен": 4236,
      " менее": 4237,
      "новости": 4238,
      "фици": 4239,
      " нео": 4240,
      " позд": 4241,
      " посо": 4242,
      "-м": 4243,
      "сен": 4244,
      " установи": 4245,
      " тури": 4246,
      " возра": 4247,
      " ата": 4248,
      " русс": 4249,
      " меня": 4250,
      " источник": 4251,
      " проекта": 4252,
      " отношения": 4253,
      "кви": 4254,
      "ма,": 4255,
      " помощи": 4256,
      " должно": 4257,
      "ктически": 4258,
      " региона": 4259,
      " дел": 4260,
      "ло,": 4261,
      "ia": 4262,
      " следова": 4263,
      " англи": 4264,
      " пово": 4265,
      " незакон": 4266,
      "нг": 4267,
      "сона": 4268,
      " радио": 4269,
      " предпри": 4270,
      " сразу": 4271,
      "лега": 4272,
      "четом": 4273,
      "са.": 4274,
      " данным,": 4275,
      " (1": 4276,
      " дене": 4277,
      " воро": 4278,
      "вел": 4279,
      " задержа": 4280,
      " устрой": 4281,
      "пример": 4282,
      "ы,": 4283,
      "мокра": 4284,
      " верхов": 4285,
      " гор": 4286,
      " отправи": 4287,
      " сотрудников": 4288,
      " вол": 4289,
      " воск": 4290,
      " вече": 4291,
      "ществ": 4292,
      " став": 4293,
      "вался": 4294,
      " такой": 4295,
      " германии": 4296,
      "ганов": 4297,
      " гро": 4298,
      " законодатель": 4299,
      "ды,": 4300,
      "стр": 4301,
      " несмотря": 4302,
      " речь": 4303,
      "хран": 4304,
      " этим": 4305,
      "20": 4306,
      " совмест": 4307,
      " бывшего": 4308,
      "вар": 4309,
      "личи": 4310,
      " предвари": 4311,
      " ау": 4312,
      " штра": 4313,
      " взя": 4314,
      " «и": 4315,
      "вались": 4316,
      "ды.": 4317,
      "ксу": 4318,
      "ла.": 4319,
      " поступи": 4320,
      " неда": 4321,
      "чем": 4322,
      "ником": 4323,
      " версии": 4324,
      " инвести": 4325,
      " республики": 4326,
      " 31": 4327,
      " полиция": 4328,
      " рассмо": 4329,
      "рил": 4330,
      "тет": 4331,
      " попро": 4332,
      " уточня": 4333,
      " попыт": 4334,
      " парламента": 4335,
      "-201": 4336,
      " группи": 4337,
      " мире": 4338,
      " шве": 4339,
      "вок": 4340,
      "бар": 4341,
      " воскрес": 4342,
      " директор": 4343,
      " сыгра": 4344,
      " пись": 4345,
      " новые": 4346,
      " цель": 4347,
      "ктора": 4348,
      " считает": 4349,
      " терак": 4350,
      "нить": 4351,
      " программы": 4352,
      "ну,": 4353,
      " води": 4354,
      " решения": 4355,
      " упа": 4356,
      "тельные": 4357,
      "чка": 4358,
      " журналиста": 4359,
      " бер": 4360,
      " нынеш": 4361,
      " инф": 4362,
      " законопро": 4363,
      "льным": 4364,
      "пере": 4365,
      " бро": 4366,
      " суббо": 4367,
      " 2006": 4368,
      " реб": 4369,
      " инициа": 4370,
      "реа": 4371,
      " медведе": 4372,
      "тий": 4373,
      "рованы": 4374,
      " запи": 4375,
      "строи": 4376,
      "шению": 4377,
      "лож": 4378,
      " новой": 4379,
      "слав": 4380,
      " француз": 4381,
      " пам": 4382,
      "id": 4383,
      " пора": 4384,
      " коло": 4385,
      "кер": 4386,
      " гре": 4387,
      " совершен": 4388,
      " жителей": 4389,
      " пря": 4390,
      " прин": 4391,
      " (в": 4392,
      " кни": 4393,
      " выда": 4394,
      " вырази": 4395,
      "чат": 4396,
      "да.": 4397,
      "-петербур": 4398,
      "вшая": 4399,
      " призн": 4400,
      "ксе": 4401,
      "ook": 4402,
      " хотя": 4403,
      "-пре": 4404,
      " примен": 4405,
      " чемпионата": 4406,
      "енно": 4407,
      "щую": 4408,
      "кт-петербур": 4409,
      " возвра": 4410,
      "коммер": 4411,
      " прошлого": 4412,
      "неф": 4413,
      "фика": 4414,
      " часов": 4415,
      "льная": 4416,
      "рец": 4417,
      "фон": 4418,
      "ag": 4419,
      " различ": 4420,
      " примерно": 4421,
      "рам": 4422,
      "лами": 4423,
      " $": 4424,
      "тых": 4425,
      " газо": 4426,
      " культу": 4427,
      " живо": 4428,
      " полностью": 4429,
      " неу": 4430,
      "рев": 4431,
      "сок": 4432,
      " кос": 4433,
      "нуть": 4434,
      " футболи": 4435,
      " немец": 4436,
      " взрыв": 4437,
      "ко.": 4438,
      "след": 4439,
      "ходят": 4440,
      "гер": 4441,
      "ям": 4442,
      " деву": 4443,
      "шта": 4444,
      "они": 4445,
      " произошло": 4446,
      " доступ": 4447,
      "e.": 4448,
      " зада": 4449,
      " следстви": 4450,
      " пале": 4451,
      " помимо": 4452,
      " опро": 4453,
      "жо": 4454,
      "50": 4455,
      " мага": 4456,
      " имеет": 4457,
      " популяр": 4458,
      " претен": 4459,
      "ванием": 4460,
      " объяв": 4461,
      " дипло": 4462,
      " некоторые": 4463,
      " сша.": 4464,
      " выступ": 4465,
      " члено": 4466,
      "-3": 4467,
      "ail": 4468,
      " зам": 4469,
      "тельным": 4470,
      " европы": 4471,
      " премьер-мини": 4472,
      " пала": 4473,
      "д,": 4474,
      " мир": 4475,
      "защит": 4476,
      " пара": 4477,
      "рю": 4478,
      "спон": 4479,
      " первого": 4480,
      " многие": 4481,
      " себе": 4482,
      " включа": 4483,
      " встреча": 4484,
      " хозя": 4485,
      " ей": 4486,
      " конц": 4487,
      " ман": 4488,
      " трав": 4489,
      " санкт-петербур": 4490,
      "нок": 4491,
      "гру": 4492,
      " ката": 4493,
      " воскресень": 4494,
      " инди": 4495,
      "жит": 4496,
      " пя": 4497,
      " парт": 4498,
      " обнаружен": 4499,
      " представителей": 4500,
      " технологи": 4501,
      " полови": 4502,
      " спортсмен": 4503,
      " региональ": 4504,
      " позволя": 4505,
      " причиной": 4506,
      " собы": 4507,
      " раск": 4508,
      "те,": 4509,
      " нью": 4510,
      " согласи": 4511,
      " четырех": 4512,
      " необходимо": 4513,
      " шесть": 4514,
      "телями": 4515,
      " судеб": 4516,
      " мер": 4517,
      "жать": 4518,
      " поряд": 4519,
      "доро": 4520,
      "лот": 4521,
      " полиции": 4522,
      "шинг": 4523,
      " объясни": 4524,
      " состои": 4525,
      "мар": 4526,
      "восто": 4527,
      "спонден": 4528,
      " потребо": 4529,
      "кую": 4530,
      "матиче": 4531,
      "ленные": 4532,
      "гло": 4533,
      " таких": 4534,
      "гля": 4535,
      " стру": 4536,
      " самолета": 4537,
      " иностранных": 4538,
      " каса": 4539,
      " кризи": 4540,
      " такие": 4541,
      " юри": 4542,
      "ствует": 4543,
      " внеш": 4544,
      " первой": 4545,
      " боле": 4546,
      " сообщил,": 4547,
      " девя": 4548,
      " сообщении": 4549,
      "обеща": 4550,
      "ат": 4551,
      " съ": 4552,
      " военных": 4553,
      " центре": 4554,
      "шки": 4555,
      " нескольких": 4556,
      "ниц": 4557,
      " роли": 4558,
      "форми": 4559,
      " диа": 4560,
      " зе": 4561,
      " бой": 4562,
      "летов": 4563,
      " этому": 4564,
      "бин": 4565,
      "москов": 4566,
      " министра": 4567,
      "чении": 4568,
      " \"по": 4569,
      " говорит": 4570,
      " народ": 4571,
      " верто": 4572,
      " сцен": 4573,
      " матче": 4574,
      " реда": 4575,
      "бай": 4576,
      " первом": 4577,
      "тый": 4578,
      " национальной": 4579,
      " стоит": 4580,
      " иго": 4581,
      "сить": 4582,
      " фигу": 4583,
      "ания.": 4584,
      " «лен": 4585,
      " пообеща": 4586,
      " тон": 4587,
      "ктив": 4588,
      " приводи": 4589,
      " иде": 4590,
      " связан": 4591,
      "нин": 4592,
      "вшим": 4593,
      "льзу": 4594,
      " того": 4595,
      " реа": 4596,
      " тен": 4597,
      " каж": 4598,
      "чества": 4599,
      " квадра": 4600,
      " мид": 4601,
      " запу": 4602,
      " работ": 4603,
      " помощью": 4604,
      "ig": 4605,
      "сер": 4606,
      " например": 4607,
      " «я": 4608,
      " внимание": 4609,
      "йден": 4610,
      " объем": 4611,
      "одно": 4612,
      " рез": 4613,
      " выясни": 4614,
      "ей,": 4615,
      " дополнитель": 4616,
      " увеличи": 4617,
      " сторон": 4618,
      " дра": 4619,
      " гри": 4620,
      " украине": 4621,
      "чено": 4622,
      " предъ": 4623,
      " органов": 4624,
      "нослу": 4625,
      " группиров": 4626,
      " лидера": 4627,
      " получить": 4628,
      "book": 4629,
      " встречи": 4630,
      " срок": 4631,
      " новости.": 4632,
      " оте": 4633,
      " теку": 4634,
      " связ": 4635,
      " руководство": 4636,
      " нужно": 4637,
      " самых": 4638,
      " «не": 4639,
      "му,": 4640,
      " клуба": 4641,
      " сти": 4642,
      " x": 4643,
      " фотографи": 4644,
      "bc": 4645,
      "pp": 4646,
      "тии": 4647,
      " правоохранительных": 4648,
      " захва": 4649,
      "ников,": 4650,
      " ядер": 4651,
      " запад": 4652,
      " универси": 4653,
      " бом": 4654,
      " похи": 4655,
      " лег": 4656,
      " субботу": 4657,
      "кцию": 4658,
      " ночь": 4659,
      "0-": 4660,
      " сопер": 4661,
      "ran": 4662,
      " представ": 4663,
      " принадлежа": 4664,
      " выигра": 4665,
      " являются": 4666,
      "пыта": 4667,
      " кораб": 4668,
      " \"э": 4669,
      " рост": 4670,
      " торго": 4671,
      " вечером": 4672,
      " упо": 4673,
      " структу": 4674,
      "ционе": 4675,
      " каза": 4676,
      "ard": 4677,
      "ры.": 4678,
      " веду": 4679,
      "ма.": 4680,
      " использу": 4681,
      " конкур": 4682,
      " района": 4683,
      "коммерсан": 4684,
      " матч": 4685,
      " корпора": 4686,
      "г.": 4687,
      " владимира": 4688,
      " заявили,": 4689,
      "ционной": 4690,
      "тера": 4691,
      "ub": 4692,
      " face": 4693,
      "лии": 4694,
      " властей": 4695,
      " арен": 4696,
      "ей.": 4697,
      "жде": 4698,
      " образом": 4699,
      " запрещен": 4700,
      " снизи": 4701,
      " лиде": 4702,
      "ent": 4703,
      " потому": 4704,
      "ваются": 4705,
      "\".\n": 4706,
      " средства": 4707,
      "ну.": 4708,
      " происше": 4709,
      "эн": 4710,
      " млрд": 4711,
      " независи": 4712,
      " писа": 4713,
      " победи": 4714,
      " преступления": 4715,
      " имени": 4716,
      " демон": 4717,
      " движения": 4718,
      "нять": 4719,
      " администрации": 4720,
      "ставить": 4721,
      "шу": 4722,
      "знь": 4723,
      " арестов": 4724,
      " порта": 4725,
      " техни": 4726,
      "телей,": 4727,
      " меры": 4728,
      "ы.": 4729,
      " един": 4730,
      " дав": 4731,
      " серге": 4732,
      " период": 4733,
      " язы": 4734,
      " провести": 4735,
      " гон": 4736,
      "сон": 4737,
      "тром": 4738,
      " скоро": 4739,
      " ряд": 4740,
      "ственно": 4741,
      " арти": 4742,
      "льное": 4743,
      "их": 4744,
      " которым": 4745,
      " конца": 4746,
      " военнослу": 4747,
      " смерти": 4748,
      "ac": 4749,
      " военнослужа": 4750,
      "тельного": 4751,
      " наказ": 4752,
      " корре": 4753,
      " млн": 4754,
      " рассматри": 4755,
      " facebook": 4756,
      "тельный": 4757,
      " интернет-": 4758,
      " возбужден": 4759,
      " прогно": 4760,
      "более": 4761,
      " требу": 4762,
      " активи": 4763,
      " процесс": 4764,
      "бло": 4765,
      " \"новости": 4766,
      " собой": 4767,
      "дется": 4768,
      " начи": 4769,
      " андрей": 4770,
      "ченных": 4771,
      " свет": 4772,
      " мор": 4773,
      "ничто": 4774,
      "суль": 4775,
      " развития": 4776,
      " харак": 4777,
      " месяцев": 4778,
      " находятся": 4779,
      "нев": 4780,
      "сной": 4781,
      " ук": 4782,
      " вашинг": 4783,
      "гна": 4784,
      " санк": 4785,
      "цов": 4786,
      "реги": 4787,
      " главный": 4788,
      " позже": 4789,
      " торгов": 4790,
      "-та": 4791,
      " рублей,": 4792,
      " press": 4793,
      " пропа": 4794,
      " ль": 4795,
      " подчеркнул,": 4796,
      " ничего": 4797,
      "кретарь": 4798,
      " \"на": 4799,
      " парламент": 4800,
      " сил": 4801,
      " страны.": 4802,
      "ктов": 4803,
      "чествен": 4804,
      " истории": 4805,
      "тил": 4806,
      " винов": 4807,
      "джи": 4808,
      "пар": 4809,
      " красно": 4810,
      " скры": 4811,
      "ясня": 4812,
      " например,": 4813,
      "».\n": 4814,
      " мужчина": 4815,
      " аппара": 4816,
      "ланд": 4817,
      " киев": 4818,
      " возможно": 4819,
      " теа": 4820,
      " демокра": 4821,
      "цин": 4822,
      " ним": 4823,
      " предпринима": 4824,
      " иску": 4825,
      " нарко": 4826,
      " сохра": 4827,
      "чета": 4828,
      " мино": 4829,
      " яко": 4830,
      " компаний": 4831,
      "лий": 4832,
      " начали": 4833,
      " поддержи": 4834,
      " другой": 4835,
      " скан": 4836,
      " нефти": 4837,
      " профе": 4838,
      " услу": 4839,
      " проходи": 4840,
      "льном": 4841,
      " трам": 4842,
      " тан": 4843,
      " площад": 4844,
      "мир": 4845,
      "мена": 4846,
      "ow": 4847,
      "лка": 4848,
      "ation": 4849,
      " банка": 4850,
      " алексей": 4851,
      " предупре": 4852,
      " прио": 4853,
      " участников": 4854,
      " проведен": 4855,
      " уничто": 4856,
      " прожи": 4857,
      " официальный": 4858,
      " такое": 4859,
      "тной": 4860,
      " «мы": 4861,
      " отве": 4862,
      " сило": 4863,
      " крити": 4864,
      " спор": 4865,
      " осуществ": 4866,
      " оч": 4867,
      " институ": 4868,
      "стоян": 4869,
      " большинство": 4870,
      " an": 4871,
      " переговоры": 4872,
      "рование": 4873,
      " комисси": 4874,
      " рынке": 4875,
      "выми": 4876,
      "цев,": 4877,
      "дия": 4878,
      " ученые": 4879,
      " тюрь": 4880,
      " беспо": 4881,
      "мин": 4882,
      " американских": 4883,
      "ционного": 4884,
      "-йор": 4885,
      "-ли": 4886,
      " своим": 4887,
      "мс": 4888,
      "\"\n": 4889,
      " дон": 4890,
      " лиц": 4891,
      " список": 4892,
      " очередь,": 4893,
      " середи": 4894,
      " доби": 4895,
      "бом": 4896,
      "сро": 4897,
      " нане": 4898,
      " депутат": 4899,
      " информация": 4900,
      " порошенко": 4901,
      " отказался": 4902,
      " ат": 4903,
      " слож": 4904,
      "дения": 4905,
      " итоге": 4906,
      " составе": 4907,
      "риан": 4908,
      "единен": 4909,
      " камп": 4910,
      " тасс": 4911,
      "тей": 4912,
      "служи": 4913,
      " россию": 4914,
      " 60": 4915,
      "луч": 4916,
      " одном": 4917,
      " поддержа": 4918,
      "ля.": 4919,
      "рели": 4920,
      "ле.": 4921,
      "к-": 4922,
      " похо": 4923,
      " неодно": 4924,
      "вало": 4925,
      "рения": 4926,
      " кварта": 4927,
      " ес": 4928,
      "мы,": 4929,
      "ледова": 4930,
      " аналоги": 4931,
      " чеч": 4932,
      "oci": 4933,
      "доров": 4934,
      " нато": 4935,
      " федерации": 4936,
      " 3,": 4937,
      "еме": 4938,
      "ква": 4939,
      "теги": 4940,
      " фильма": 4941,
      "чис": 4942,
      " убе": 4943,
      "гани": 4944,
      " выход": 4945,
      " присут": 4946,
      " \"у": 4947,
      "треть": 4948,
      "сб": 4949,
      "ле,": 4950,
      "жного": 4951,
      "ph": 4952,
      "россий": 4953,
      " митин": 4954,
      "дать": 4955,
      "стов,": 4956,
      " награ": 4957,
      "ходов": 4958,
      "ющее": 4959,
      " палестин": 4960,
      "вили": 4961,
      "емого": 4962,
      " якобы": 4963,
      "...": 4964,
      " ass": 4965,
      " сделать": 4966,
      "тах": 4967,
      " отсут": 4968,
      "вшихся": 4969,
      "пром": 4970,
      "up": 4971,
      " образом,": 4972,
      " 198": 4973,
      " относи": 4974,
      " \"газ": 4975,
      " размере": 4976,
      "ровер": 4977,
      " нач": 4978,
      " заместитель": 4979,
      " кали": 4980,
      " поста": 4981,
      "спорта": 4982,
      " евг": 4983,
      "лых": 4984,
      "сур": 4985,
      "щер": 4986,
      " произошед": 4987,
      " председатель": 4988,
      "йца": 4989,
      " прошлом": 4990,
      " опублико": 4991,
      " причаст": 4992,
      " посети": 4993,
      " бал": 4994,
      "тур": 4995,
      " остро": 4996,
      "никами": 4997,
      " сайт": 4998,
      " реаль": 4999,
      " кажды": 5000,
      "os": 5001,
      "бов": 5002,
      " авиакомп": 5003,
      "ержа": 5004,
      " нам": 5005,
      " долго": 5006,
      " известно": 5007,
      " tim": 5008,
      "проку": 5009,
      " добавил,": 5010,
      " марте": 5011,
      " двое": 5012,
      " электро": 5013,
      " конститу": 5014,
      " дальней": 5015,
      " выну": 5016,
      " веро": 5017,
      " коммента": 5018,
      " владель": 5019,
      " еже": 5020,
      " сена": 5021,
      "емый": 5022,
      " членов": 5023,
      " финанси": 5024,
      " te": 5025,
      " влия": 5026,
      " постоян": 5027,
      " сконча": 5028,
      " опубликован": 5029,
      " жало": 5030,
      " австра": 5031,
      " напада": 5032,
      " населения": 5033,
      " эксперты": 5034,
      " месяца": 5035,
      "джа": 5036,
      " приводит": 5037,
      "ющая": 5038,
      " подмосков": 5039,
      " сирий": 5040,
      " эфи": 5041,
      " документа": 5042,
      " газеты": 5043,
      " планируется": 5044,
      "наль": 5045,
      " покупа": 5046,
      "дже": 5047,
      " выво": 5048,
      "ft": 5049,
      " стату": 5050,
      "кнов": 5051,
      " декабре": 5052,
      " 2005": 5053,
      ":1": 5054,
      " военные": 5055,
      " пресс-се": 5056,
      " указ": 5057,
      "руют": 5058,
      " тро": 5059,
      " олимпий": 5060,
      " роль": 5061,
      "жением": 5062,
      " нее": 5063,
      " и,": 5064,
      " понедельник": 5065,
      "вии": 5066,
      " результаты": 5067,
      "разде": 5068,
      "коми": 5069,
      " отмечается,": 5070,
      " нью-йор": 5071,
      " москва": 5072,
      " самым": 5073,
      " свер": 5074,
      " организо": 5075,
      " сумму": 5076,
      "сад": 5077,
      " помощь": 5078,
      " серви": 5079,
      " мак": 5080,
      " всем": 5081,
      " выборах": 5082,
      " ситуация": 5083,
      " банков": 5084,
      " председа": 5085,
      " полага": 5086,
      " оде": 5087,
      " преды": 5088,
      " кие": 5089,
      "чески": 5090,
      "жений": 5091,
      "ционных": 5092,
      " проведения": 5093,
      " умер": 5094,
      "чном": 5095,
      "казы": 5096,
      " одоб": 5097,
      " долларов,": 5098,
      " бир": 5099,
      " петербур": 5100,
      " достаточ": 5101,
      " благода": 5102,
      " («": 5103,
      "кану": 5104,
      "бил": 5105,
      " современ": 5106,
      " соверши": 5107,
      " фильм": 5108,
      " принято": 5109,
      "стой": 5110,
      "тальян": 5111,
      " пользу": 5112,
      " прось": 5113,
      " предыду": 5114,
      " единствен": 5115,
      " департа": 5116,
      "им": 5117,
      "га,": 5118,
      " северо": 5119,
      "баты": 5120,
      "рез": 5121,
      "ram": 5122,
      "чили": 5123,
      "нул": 5124,
      "ятся": 5125,
      "льщи": 5126,
      " отдель": 5127,
      " органа": 5128,
      " золо": 5129,
      "ровала": 5130,
      "тный": 5131,
      "эй": 5132,
      "шением": 5133,
      " сама": 5134,
      " крем": 5135,
      " трамп": 5136,
      " написал": 5137,
      " счетом": 5138,
      " американский": 5139,
      " джон": 5140,
      "чным": 5141,
      "шает": 5142,
      " операции": 5143,
      " процентов.": 5144,
      "ur": 5145,
      " выборы": 5146,
      " расследование": 5147,
      "кар": 5148,
      " вторник": 5149,
      " оши": 5150,
      "лам": 5151,
      " associ": 5152,
      " близ": 5153,
      " очеред": 5154,
      " организация": 5155,
      " арм": 5156,
      " американского": 5157,
      "ду,": 5158,
      " компани": 5159,
      " агентства": 5160,
      "тные": 5161,
      "стом": 5162,
      " хок": 5163,
      " охра": 5164,
      " неоднокра": 5165,
      "ев,": 5166,
      " эки": 5167,
      "скоре": 5168,
      "wit": 5169,
      " (\"": 5170,
      " стратеги": 5171,
      " итальян": 5172,
      " получила": 5173,
      " покуп": 5174,
      " of": 5175,
      " дом": 5176,
      " могли": 5177,
      " накану": 5178,
      " банк": 5179,
      " утром": 5180,
      "шать": 5181,
      " оказался": 5182,
      " предложил": 5183,
      " шу": 5184,
      "com": 5185,
      " пройдет": 5186,
      " учре": 5187,
      " выборов": 5188,
      " подчеркнул": 5189,
      " ситуации": 5190,
      " премьер-министр": 5191,
      "ффек": 5192,
      " ирак": 5193,
      "ated": 5194,
      "менить": 5195,
      " опровер": 5196,
      " что,": 5197,
      "ческим": 5198,
      " вопроса": 5199,
      " дума": 5200,
      " 0,": 5201,
      "торов": 5202,
      " однако,": 5203,
      " осо": 5204,
      "треб": 5205,
      "телей.": 5206,
      " конфликта": 5207,
      " сентябре": 5208,
      " последний": 5209,
      "тного": 5210,
      " персона": 5211,
      " столич": 5212,
      " \"не": 5213,
      "ческая": 5214,
      " предположи": 5215,
      " магази": 5216,
      " игры": 5217,
      " сообщения": 5218,
      " возбуждено": 5219,
      " запа": 5220,
      " мощ": 5221,
      " президентом": 5222,
      " зап": 5223,
      " искус": 5224,
      " сведения": 5225,
      "ется.": 5226,
      " иран": 5227,
      " полномо": 5228,
      " никаких": 5229,
      " выпусти": 5230,
      " процента.": 5231,
      " наиболее": 5232,
      "стической": 5233,
      " данных": 5234,
      "2,": 5235,
      " коре": 5236,
      " евросою": 5237,
      "еру": 5238,
      "ль,": 5239,
      "тран": 5240,
      " январе": 5241,
      " прокуро": 5242,
      "цию,": 5243,
      " позднее": 5244,
      " министерства": 5245,
      "вли": 5246,
      "хе": 5247,
      " состоится": 5248,
      "фина": 5249,
      " александра": 5250,
      " мало": 5251,
      " наблюда": 5252,
      " лица": 5253,
      "тай": 5254,
      " 500": 5255,
      "ля,": 5256,
      "вери": 5257,
      " направи": 5258,
      " планирует": 5259,
      "коммерсант": 5260,
      " продолжи": 5261,
      "мых": 5262,
      " доказа": 5263,
      " официально": 5264,
      " публика": 5265,
      "тни": 5266,
      " изу": 5267,
      "пис": 5268,
      "емь": 5269,
      " штраф": 5270,
      " никто": 5271,
      " геро": 5272,
      " строительство": 5273,
      "рить": 5274,
      "witter": 5275,
      " выстав": 5276,
      "движи": 5277,
      " благодаря": 5278,
      " оператив": 5279,
      " смогут": 5280,
      " посвя": 5281,
      " воздуш": 5282,
      " говоря": 5283,
      "весто": 5284,
      " спро": 5285,
      " возглавля": 5286,
      "с-": 5287,
      " отмен": 5288,
      "поли": 5289,
      " й": 5290,
      "пред": 5291,
      "пру": 5292,
      " сканда": 5293,
      " худо": 5294,
      "стива": 5295,
      " инцидент": 5296,
      "шлось": 5297,
      "ологи": 5298,
      " найден": 5299,
      " работать": 5300,
      " вариан": 5301,
      " годы": 5302,
      " goo": 5303,
      " министерство": 5304,
      " зло": 5305,
      " источники": 5306,
      " associated": 5307,
      "ты.ру": 5308,
      "30": 5309,
      "клад": 5310,
      "gle": 5311,
      "рого": 5312,
      " компен": 5313,
      " система": 5314,
      " михаил": 5315,
      " ребен": 5316,
      " госпи": 5317,
      " осно": 5318,
      " российская": 5319,
      " налого": 5320,
      " мне": 5321,
      "кте": 5322,
      " ноябре": 5323,
      " вероят": 5324,
      " ассо": 5325,
      " клуб": 5326,
      " ска": 5327,
      " данный": 5328,
      " житель": 5329,
      " постанов": 5330,
      " генпроку": 5331,
      "бороны": 5332,
      " главного": 5333,
      " концер": 5334,
      "валась": 5335,
      " экипа": 5336,
      "ев.": 5337,
      " сами": 5338,
      " добавил": 5339,
      " зи": 5340,
      " возник": 5341,
      " цена": 5342,
      " цены": 5343,
      " команда": 5344,
      " первые": 5345,
      "га.": 5346,
      "гети": 5347,
      "голо": 5348,
      "ец": 5349,
      " высоко": 5350,
      " силу": 5351,
      " ранения": 5352,
      " истре": 5353,
      " свидетель": 5354,
      "гран": 5355,
      "сматри": 5356,
      " медицин": 5357,
      "ленный": 5358,
      "десь": 5359,
      " раза": 5360,
      " донба": 5361,
      " фло": 5362,
      "йне": 5363,
      " исследова": 5364,
      "ента": 5365,
      " силы": 5366,
      "декс": 5367,
      "сет": 5368,
      " деятельности": 5369,
      " обу": 5370,
      " дже": 5371,
      " пожар": 5372,
      "мана": 5373,
      " франции": 5374,
      " состоянии": 5375,
      " bl": 5376,
      " управля": 5377,
      " украина": 5378,
      " руководитель": 5379,
      " сможет": 5380,
      " странице": 5381,
      " норма": 5382,
      " отвеча": 5383,
      " аналити": 5384,
      " корреспонден": 5385,
      " вид": 5386,
      "нан": 5387,
      " американские": 5388,
      "-либо": 5389,
      " родствен": 5390,
      " карь": 5391,
      " квадратных": 5392,
      " вскоре": 5393,
      " принять": 5394,
      " втором": 5395,
      " девуш": 5396,
      " актер": 5397,
      " times": 5398,
      " первую": 5399,
      " заво": 5400,
      " меньше": 5401,
      " кате": 5402,
      " апреле": 5403,
      " целью": 5404,
      " обсужда": 5405,
      "никам": 5406,
      " рели": 5407,
      " октябре": 5408,
      " женщина": 5409,
      " неоднократно": 5410,
      " куб": 5411,
      " защит": 5412,
      " месяц": 5413,
      " япон": 5414,
      "нему": 5415,
      " оказались": 5416,
      "ционный": 5417,
      " спецслуж": 5418,
      "рги": 5419,
      "жный": 5420,
      " мае": 5421,
      "шему": 5422,
      " шести": 5423,
      " полномочи": 5424,
      " ущер": 5425,
      " подразде": 5426,
      " начал": 5427,
      "лад": 5428,
      "ство,": 5429,
      " принял": 5430,
      " улице": 5431,
      " связа": 5432,
      " крым": 5433,
      " обязан": 5434,
      " 35": 5435,
      "гры": 5436,
      " ано": 5437,
      " страны,": 5438,
      " четверг": 5439,
      " транспорт": 5440,
      "ходы": 5441,
      " московской": 5442,
      " набра": 5443,
      "дит": 5444,
      " столкнов": 5445,
      " шан": 5446,
      "гип": 5447,
      " брази": 5448,
      " середине": 5449,
      " минут": 5450,
      " военной": 5451,
      " 2004": 5452,
      " метров": 5453,
      " общей": 5454,
      " цер": 5455,
      " вза": 5456,
      "кты": 5457,
      " google": 5458,
      " тренер": 5459,
      " американской": 5460,
      "кими": 5461,
      " вось": 5462,
      "слов": 5463,
      " лет,": 5464,
      " моби": 5465,
      "ченко": 5466,
      " выдви": 5467,
      " гости": 5468,
      " посоль": 5469,
      " недвижи": 5470,
      " сих": 5471,
      "пря": 5472,
      " бюджета": 5473,
      " феврале": 5474,
      " площади": 5475,
      "ствуют": 5476,
      " жизнь": 5477,
      "ждении": 5478,
      " 2019": 5479,
      "вшись": 5480,
      " инвесто": 5481,
      " распростран": 5482,
      " судь": 5483,
      " столицы": 5484,
      " истреби": 5485,
      " комму": 5486,
      " выро": 5487,
      "цию.": 5488,
      " победу": 5489,
      " попыта": 5490,
      " зар": 5491,
      " форма": 5492,
      " вну": 5493,
      " ближайшее": 5494,
      " бори": 5495,
      "гор": 5496,
      " студен": 5497,
      " забо": 5498,
      " reuters.": 5499,
      " непри": 5500,
      " соглашение": 5501,
      " контракт": 5502,
      "вании": 5503,
      "ut": 5504,
      " физи": 5505,
      "e,": 5506,
      " озна": 5507,
      " поддержку": 5508,
      " заявила": 5509,
      " поводу": 5510,
      "out": 5511,
      " жители": 5512,
      " показ": 5513,
      " поня": 5514,
      " десяти": 5515,
      " солда": 5516,
      " практически": 5517,
      " понедельник,": 5518,
      "iv": 5519,
      " рынка": 5520,
      " госдумы": 5521,
      " twitter": 5522,
      " дэ": 5523,
      " здания": 5524,
      " уточни": 5525,
      "нов,": 5526,
      "у.": 5527,
      " составила": 5528,
      " мог": 5529,
      "град": 5530,
      "дор": 5531,
      " властя": 5532,
      " фир": 5533,
      "щим": 5534,
      " app": 5535,
      " закона": 5536,
      " здесь": 5537,
      "лах": 5538,
      "ставили": 5539,
      "ной,": 5540,
      "ческую": 5541,
      " которому": 5542,
      " дли": 5543,
      " вынужден": 5544,
      " арми": 5545,
      " мч": 5546,
      "жей": 5547,
      " хра": 5548,
      " условия": 5549,
      " рекорд": 5550,
      " косми": 5551,
      " объявил": 5552,
      " расши": 5553,
      " сим": 5554,
      " владе": 5555,
      " тради": 5556,
      " ассоциа": 5557,
      " лен": 5558,
      " оно": 5559,
      " изобра": 5560,
      " топли": 5561,
      " ото": 5562,
      " кад": 5563,
      "зит": 5564,
      " тыс.": 5565,
      " ch": 5566,
      "вича": 5567,
      " либо": 5568,
      " добы": 5569,
      ":00": 5570,
      " представителя": 5571,
      " сли": 5572,
      " узна": 5573,
      " de": 5574,
      "ников.": 5575,
      " перево": 5576,
      "ностей": 5577,
      " егип": 5578,
      " фсб": 5579,
      " здоров": 5580,
      " турец": 5581,
      " пункта": 5582,
      "скор": 5583,
      "вшийся": 5584,
      "ведо": 5585,
      "сит": 5586,
      "езда": 5587,
      " спустя": 5588,
      " статье": 5589,
      " среду,": 5590,
      " всей": 5591,
      " желез": 5592,
      " истори": 5593,
      "ian": 5594,
      " борту": 5595,
      " зарпла": 5596,
      " провел": 5597,
      "нюю": 5598,
      "нов.": 5599,
      " использовать": 5600,
      " происшествия": 5601,
      " супру": 5602,
      " нашли": 5603,
      " пари": 5604,
      " имя": 5605,
      " мас": 5606,
      "and": 5607,
      " перио": 5608,
      " выде": 5609,
      " катего": 5610,
      " двига": 5611,
      " накануне": 5612,
      "6,": 5613,
      " восемь": 5614,
      "обще": 5615,
      "емые": 5616,
      "вит": 5617,
      " лиги": 5618,
      " пресс-рели": 5619,
      "ре,": 5620,
      "ным.": 5621,
      " акт": 5622,
      " самой": 5623,
      "4,": 5624,
      " считает,": 5625,
      " това": 5626,
      "чена": 5627,
      "ника,": 5628,
      " участники": 5629,
      "тые": 5630,
      " диплома": 5631,
      " казах": 5632,
      "ме,": 5633,
      " соглашения": 5634,
      " вторник,": 5635,
      "чную": 5636,
      "куп": 5637,
      "чное": 5638,
      " подроб": 5639,
      " клю": 5640,
      " преми": 5641,
      " глу": 5642,
      "-летнего": 5643,
      " цере": 5644,
      " потеря": 5645,
      " адвокат": 5646,
      " грузии": 5647,
      " ир": 5648,
      "новь": 5649,
      "тят": 5650,
      " этом,": 5651,
      "мые": 5652,
      "тельное": 5653,
      "регистри": 5654,
      "чем,": 5655,
      " составит": 5656,
      " окон": 5657,
      " уровень": 5658,
      " коне": 5659,
      "лете": 5660,
      " 300": 5661,
      "ффектив": 5662,
      " распростра": 5663,
      " подписа": 5664,
      "лег": 5665,
      "вшегося": 5666,
      " бума": 5667,
      " годов": 5668,
      " задержали": 5669,
      " южной": 5670,
      "дума": 5671,
      " подпис": 5672,
      "ме.": 5673,
      " большой": 5674,
      "нр": 5675,
      " возможности": 5676,
      " августе": 5677,
      " ву": 5678,
      " подтверди": 5679,
      " хол": 5680,
      " гол": 5681,
      " минобороны": 5682,
      "кция": 5683,
      "тельно,": 5684,
      " зай": 5685,
      "гом": 5686,
      " конкурен": 5687,
      " потом": 5688,
      "де,": 5689,
      "бора": 5690,
      " максима": 5691,
      " трампа": 5692,
      " протеста": 5693,
      " четверг,": 5694,
      " обнаружили": 5695,
      "рави": 5696,
      "3,": 5697,
      " войны": 5698,
      "пр": 5699,
      " 70": 5700,
      " раскры": 5701,
      "рудов": 5702,
      " надо": 5703,
      " оборо": 5704,
      " тр": 5705,
      "нах": 5706,
      " ок": 5707,
      "тех": 5708,
      " алкого": 5709,
      "бри": 5710,
      " пресс-секретарь": 5711,
      " подвер": 5712,
      "йдут": 5713,
      " каждый": 5714,
      "нами": 5715,
      " нарушения": 5716,
      " вене": 5717,
      " посвящен": 5718,
      "ros": 5719,
      " эпи": 5720,
      " вновь": 5721,
      "телю": 5722,
      " пятницу,": 5723,
      " миниму": 5724,
      " повре": 5725,
      " пси": 5726,
      " вышел": 5727,
      "ствовали": 5728,
      "ber": 5729,
      " распоря": 5730,
      "кло": 5731,
      " законопроект": 5732,
      " достиг": 5733,
      " россией": 5734,
      " недели": 5735,
      "его": 5736,
      "ясь": 5737,
      " дере": 5738,
      " ликви": 5739,
      " уголовного": 5740,
      "чная": 5741,
      " год.": 5742,
      " «за": 5743,
      " пришлось": 5744,
      " бизне": 5745,
      " купи": 5746,
      " джо": 5747,
      " уверен": 5748,
      " пригла": 5749,
      "бере": 5750,
      " сергея": 5751,
      " написа": 5752,
      " органы": 5753,
      " швейца": 5754,
      " московского": 5755,
      " путина": 5756,
      " комменти": 5757,
      " пояснил": 5758,
      " деятельность": 5759,
      " автобу": 5760,
      " важ": 5761,
      "лся,": 5762,
      " войск": 5763,
      " административ": 5764,
      " намерен": 5765,
      " мол": 5766,
      " часто": 5767,
      " европе": 5768,
      " поле": 5769,
      " тек": 5770,
      " изменения": 5771,
      "рили": 5772,
      "вов": 5773,
      "лый": 5774,
      " испыт": 5775,
      " «ленты.ру": 5776,
      "льную": 5777,
      " бри": 5778,
      " первым": 5779,
      "зем": 5780,
      "мы.": 5781,
      " неболь": 5782,
      " фонда": 5783,
      " заплани": 5784,
      " роста": 5785,
      "тельств": 5786,
      " ресур": 5787,
      " заявления": 5788,
      "ль.": 5789,
      " погибших": 5790,
      " уви": 5791,
      " успеш": 5792,
      " грузо": 5793,
      " весь": 5794,
      " оконча": 5795,
      "ссер": 5796,
      "комменти": 5797,
      " сф": 5798,
      " войска": 5799,
      "гии": 5800,
      " донец": 5801,
      " брен": 5802,
      " sp": 5803,
      " приве": 5804,
      " центр": 5805,
      " форми": 5806,
      " работе": 5807,
      " запро": 5808,
      " вопросы": 5809,
      " мнению,": 5810,
      " приняли": 5811,
      "нию": 5812,
      " комитет": 5813,
      " заседании": 5814,
      " серии": 5815,
      " такого": 5816,
      "вшиеся": 5817,
      " прокомменти": 5818,
      " обстре": 5819,
      " ввс": 5820,
      " сериа": 5821,
      " остан": 5822,
      "лец": 5823,
      "a.": 5824,
      " сообщила": 5825,
      " (о": 5826,
      "ре.": 5827,
      " церемо": 5828,
      "д.": 5829,
      "анных": 5830,
      " професси": 5831,
      "лер": 5832,
      "тирует": 5833,
      " энергети": 5834,
      " кара": 5835,
      " требования": 5836,
      " наро": 5837,
      "л-": 5838,
      " спаса": 5839,
      " разгово": 5840,
      "шком": 5841,
      "рее": 5842,
      " 4,": 5843,
      " следствия,": 5844,
      " \"интерфакс\".": 5845,
      "сп": 5846,
      "вана": 5847,
      " вступи": 5848,
      " инициати": 5849,
      " ответственность": 5850,
      "фикси": 5851,
      " архи": 5852,
      " убийстве": 5853,
      " уво": 5854,
      "де.": 5855,
      " оружия": 5856,
      " всегда": 5857,
      " рядом": 5858,
      "дей,": 5859,
      " путе": 5860,
      "ференции": 5861,
      " возоб": 5862,
      " капита": 5863,
      " (2": 5864,
      "эль": 5865,
      "дри": 5866,
      " включая": 5867,
      " конгре": 5868,
      "бран": 5869,
      " сме": 5870,
      " apple": 5871,
      " \"и": 5872,
      " итали": 5873,
      " дональ": 5874,
      " регуляр": 5875,
      " обстоя": 5876,
      " air": 5877,
      " зарегистри": 5878,
      " составил": 5879,
      " собе": 5880,
      " специалисты": 5881,
      " действий": 5882,
      "ить": 5883,
      "бир": 5884,
      " валют": 5885,
      "круг": 5886,
      "ov": 5887,
      " осужден": 5888,
      "с\"": 5889,
      " факту": 5890,
      " рассмотр": 5891,
      " рос": 5892,
      " пору": 5893,
      " государство": 5894,
      " развед": 5895,
      " столице": 5896,
      " достав": 5897,
      " сла": 5898,
      " жиль": 5899,
      " пес": 5900,
      "-ка": 5901,
      "кета": 5902,
      " сравнению": 5903,
      "с»": 5904,
      "-о": 5905,
      " зафикси": 5906,
      " тоже": 5907,
      " имуще": 5908,
      "кли": 5909,
      " впро": 5910,
      "пел": 5911,
      " памят": 5912,
      " армии": 5913,
      " лондон": 5914,
      "станавли": 5915,
      "-прем": 5916,
      " выразил": 5917,
      " игорь": 5918,
      "док": 5919,
      " нет.": 5920,
      " подня": 5921,
      " директора": 5922,
      " июне": 5923,
      " зри": 5924,
      " государственной": 5925,
      " союз": 5926,
      "ций,": 5927,
      "um": 5928,
      " мари": 5929,
      " принци": 5930,
      " регионе": 5931,
      "-си": 5932,
      " заявила,": 5933,
      " команду": 5934,
      " низ": 5935,
      "структу": 5936,
      "ческое": 5937,
      " тол": 5938,
      " ран": 5939,
      "дя": 5940,
      " указыва": 5941,
      "вшем": 5942,
      "начально": 5943,
      " заявили": 5944,
      " журналист": 5945,
      " случи": 5946,
      " союза": 5947,
      "лять": 5948,
      "one": 5949,
      " призвал": 5950,
      " самого": 5951,
      " выше": 5952,
      " работает": 5953,
      " ниже": 5954,
      " ожидается,": 5955,
      "щему": 5956,
      "рованных": 5957,
      "цам": 5958,
      " вместо": 5959,
      " документ": 5960,
      " юрий": 5961,
      " сцена": 5962,
      "вета": 5963,
      "ul": 5964,
      "дем": 5965,
      " считают": 5966,
      " уи": 5967,
      "-президен": 5968,
      " оборудов": 5969,
      " «это": 5970,
      " дво": 5971,
      " постро": 5972,
      " комплекс": 5973,
      " виктор": 5974,
      " \"ю": 5975,
      " замети": 5976,
      " указа": 5977,
      " r": 5978,
      " июле": 5979,
      " борьбе": 5980,
      " опла": 5981,
      " останови": 5982,
      " внес": 5983,
      " bbc": 5984,
      " взрыва": 5985,
      "деть": 5986,
      " болельщи": 5987,
      "пин": 5988,
      "ум": 5989,
      "чению": 5990,
      " испан": 5991,
      " электрон": 5992,
      " предложение": 5993,
      " международного": 5994,
      " уче": 5995,
      " 80": 5996,
      "возмо": 5997,
      " аварии": 5998,
      " сделал": 5999,
      " компенса": 6000,
      "мень": 6001,
      " внутренних": 6002,
      " соответствии": 6003,
      " северной": 6004,
      " сумма": 6005,
      " предусматри": 6006,
      "леты": 6007,
      " некоторых": 6008,
      " пенсион": 6009,
      " уз": 6010,
      " «ка": 6011,
      "рована": 6012,
      " гибе": 6013,
      " очевид": 6014,
      "ствовал": 6015,
      " госпитали": 6016,
      "мор": 6017,
      " впрочем,": 6018,
      " грузин": 6019,
      " фестива": 6020,
      " продажи": 6021,
      " розы": 6022,
      "ственных": 6023,
      "чно,": 6024,
      " 45": 6025,
      " наме": 6026,
      " англий": 6027,
      " стади": 6028,
      " микро": 6029,
      "bo": 6030,
      " вокруг": 6031,
      "чай": 6032,
      " ведомства": 6033,
      " широ": 6034,
      " спортив": 6035,
      " одну": 6036,
      "aily": 6037,
      "зма": 6038,
      " дево": 6039,
      " меж": 6040,
      " уровне": 6041,
      "ставил": 6042,
      " выска": 6043,
      "стаи": 6044,
      " предостав": 6045,
      " достаточно": 6046,
      " 36": 6047,
      " какие": 6048,
      "дро": 6049,
      " бен": 6050,
      " ранен": 6051,
      " протя": 6052,
      " рассчиты": 6053,
      "ровано": 6054,
      "цем": 6055,
      " считают,": 6056,
      "ться,": 6057,
      "ваку": 6058,
      " «интерфакс": 6059,
      " российским": 6060,
      "каде": 6061,
      " приходи": 6062,
      " хоте": 6063,
      " 197": 6064,
      "щать": 6065,
      " первое": 6066,
      " разо": 6067,
      " музыкан": 6068,
      "гранич": 6069,
      " рассказал,": 6070,
      "кри": 6071,
      "щению": 6072,
      "p.": 6073,
      "em": 6074,
      " университета": 6075,
      " тимо": 6076,
      " присо": 6077,
      "хани": 6078,
      "-200": 6079,
      " корруп": 6080,
      " официальном": 6081,
      " театра": 6082,
      " второго": 6083,
      " содержа": 6084,
      " здание": 6085,
      "ями": 6086,
      " решил": 6087,
      " задержаны": 6088,
      " грузи": 6089,
      " [": 6090,
      " компании,": 6091,
      "ньше": 6092,
      "чку": 6093,
      " вен": 6094,
      " перво": 6095,
      " номе": 6096,
      " белоруссии": 6097,
      " начина": 6098,
      " позволи": 6099,
      " af": 6100,
      " лит": 6101,
      " восстанов": 6102,
      " цска": 6103,
      " остается": 6104,
      " года.\n": 6105,
      " семи": 6106,
      " встрече": 6107,
      " маль": 6108,
      " санкции": 6109,
      " несо": 6110,
      " плана": 6111,
      " летом": 6112,
      "энер": 6113,
      " процеду": 6114,
      "чика": 6115,
      "мено": 6116,
      " сове": 6117,
      " продажу": 6118,
      " содерж": 6119,
      " свободы": 6120,
      "кистан": 6121,
      " местных": 6122,
      "емой": 6123,
      "лов,": 6124,
      "вой,": 6125,
      " москву": 6126,
      " tele": 6127,
      "»\n": 6128,
      "ной.": 6129,
      " трене": 6130,
      " находились": 6131,
      " никогда": 6132,
      "зация": 6133,
      " людей,": 6134,
      " комиссии": 6135,
      "дий": 6136,
      "довлет": 6137,
      ":0": 6138,
      " экстре": 6139,
      " создан": 6140,
      "сля": 6141,
      " пресс-службе": 6142,
      " ошиб": 6143,
      " аресто": 6144,
      "пуска": 6145,
      " зара": 6146,
      " случай": 6147,
      " участия": 6148,
      " зелен": 6149,
      " вашингто": 6150,
      " заявлении": 6151,
      " «но": 6152,
      " раньше": 6153,
      " какой": 6154,
      " зависи": 6155,
      "город": 6156,
      " уси": 6157,
      " вооруженных": 6158,
      " статьи": 6159,
      " причем": 6160,
      " нефтя": 6161,
      " моря": 6162,
      "лог": 6163,
      " пило": 6164,
      " музе": 6165,
      " последнее": 6166,
      " ори": 6167,
      "ваны": 6168,
      " соц": 6169,
      " лат": 6170,
      "жал": 6171,
      " фили": 6172,
      "том,": 6173,
      " 2003": 6174,
      " военного": 6175,
      " эваку": 6176,
      " fran": 6177,
      " daily": 6178,
      " андре": 6179,
      " признал": 6180,
      "жные": 6181,
      "1,": 6182,
      "ченные": 6183,
      " смогли": 6184,
      " степ": 6185,
      "рат": 6186,
      " чув": 6187,
      " рабочи": 6188,
      " находился": 6189,
      "7,": 6190,
      " никола": 6191,
      " уровня": 6192,
      " позволит": 6193,
      "ak": 6194,
      " алексе": 6195,
      " \"коммерсант": 6196,
      " всего,": 6197,
      "ете.": 6198,
      " свобод": 6199,
      "»)": 6200,
      " издания,": 6201,
      " афгани": 6202,
      " «ко": 6203,
      " управление": 6204,
      " автор": 6205,
      " председателя": 6206,
      " коали": 6207,
      "ьют": 6208,
      "гар": 6209,
      " убийства": 6210,
      " news.": 6211,
      " перспе": 6212,
      "боро": 6213,
      " проблемы": 6214,
      " белорусс": 6215,
      " доллара": 6216,
      " днем": 6217,
      " отда": 6218,
      "директо": 6219,
      " al": 6220,
      " (с": 6221,
      " курс": 6222,
      " действительно": 6223,
      " контроль": 6224,
      " удар": 6225,
      " слишком": 6226,
      "ила": 6227,
      " район": 6228,
      " катастро": 6229,
      "нули": 6230,
      " актри": 6231,
      " джей": 6232,
      "под": 6233,
      " создать": 6234,
      " нефте": 6235,
      " али": 6236,
      " мировой": 6237,
      " касается": 6238,
      " трое": 6239,
      " сочи": 6240,
      " договори": 6241,
      " десят": 6242,
      "a,": 6243,
      "банк": 6244,
      " строительства": 6245,
      " партне": 6246,
      "ций.": 6247,
      "пов": 6248,
      "лети": 6249,
      "леко": 6250,
      "чать": 6251,
      "тья": 6252,
      "клады": 6253,
      " допусти": 6254,
      " республикан": 6255,
      "0-х": 6256,
      " должность": 6257,
      "март": 6258,
      " появилась": 6259,
      " злоу": 6260,
      " автомобилей": 6261,
      "oft": 6262,
      " движение": 6263,
      " телеканал": 6264,
      " вынес": 6265,
      " вести": 6266,
      " члены": 6267,
      "ost": 6268,
      " имеют": 6269,
      " джор": 6270,
      " приеха": 6271,
      " космо": 6272,
      "ьера": 6273,
      " нако": 6274,
      "сила": 6275,
      " исполнитель": 6276,
      "гули": 6277,
      " области.": 6278,
      "правед": 6279,
      " молоды": 6280,
      " рекомен": 6281,
      "ленного": 6282,
      " следует": 6283,
      "all": 6284,
      " политики": 6285,
      "новремен": 6286,
      "начала": 6287,
      " предъяв": 6288,
      "ений,": 6289,
      " юго": 6290,
      "гни": 6291,
      "праведли": 6292,
      " гар": 6293,
      " арби": 6294,
      " партия": 6295,
      "вори": 6296,
      " «се": 6297,
      "ab": 6298,
      " экра": 6299,
      " чемпионате": 6300,
      "ственной": 6301,
      "ct": 6302,
      "зом": 6303,
      " «про": 6304,
      " международной": 6305,
      " человека,": 6306,
      "жем": 6307,
      " жест": 6308,
      " генпрокурату": 6309,
      " «з": 6310,
      " мере": 6311,
      " игру": 6312,
      " чемпион": 6313,
      " роман": 6314,
      "сов,": 6315,
      "оз": 6316,
      "хан": 6317,
      " поезд": 6318,
      " граждани": 6319,
      "вати": 6320,
      "ющую": 6321,
      " плат": 6322,
      " потен": 6323,
      "рица": 6324,
      " кубо": 6325,
      "мос": 6326,
      "щены": 6327,
      " олимпиа": 6328,
      "послед": 6329,
      " территорию": 6330,
      " прокуратура": 6331,
      "роваться": 6332,
      " «ро": 6333,
      " эффектив": 6334,
      " вот": 6335,
      " определи": 6336,
      " компании.": 6337,
      " переговоров": 6338,
      "сист": 6339,
      " пострадавших": 6340,
      " ссс": 6341,
      "поте": 6342,
      " изъ": 6343,
      " член": 6344,
      "ort": 6345,
      " беспоряд": 6346,
      "лой": 6347,
      " контроли": 6348,
      " победы": 6349,
      " нефть": 6350,
      " сна": 6351,
      "банка": 6352,
      " арестован": 6353,
      " время,": 6354,
      " располага": 6355,
      " десять": 6356,
      "5,": 6357,
      " расследования": 6358,
      " ежегод": 6359,
      " суме": 6360,
      "шить": 6361,
      "гото": 6362,
      " разру": 6363,
      " \"за": 6364,
      " введен": 6365,
      "ту,": 6366,
      "нется": 6367,
      " клиен": 6368,
      " мошен": 6369,
      " лука": 6370,
      "сол": 6371,
      "ill": 6372,
      "тором": 6373,
      "дов,": 6374,
      "имуще": 6375,
      " барре": 6376,
      " диск": 6377,
      " сборная": 6378,
      " особо": 6379,
      " фоне": 6380,
      "б,": 6381,
      " выбра": 6382,
      "лях": 6383,
      " неделю": 6384,
      "май": 6385,
      "лов.": 6386,
      " украины.": 6387,
      "цами": 6388,
      " доме": 6389,
      " быстро": 6390,
      " украинского": 6391,
      " ека": 6392,
      " выступил": 6393,
      "син": 6394,
      " понима": 6395,
      " служба": 6396,
      "вил": 6397,
      "интере": 6398,
      " масшта": 6399,
      "-летняя": 6400,
      "ленной": 6401,
      " турции": 6402,
      " устрои": 6403,
      " адрес": 6404,
      "спор": 6405,
      " метро": 6406,
      " самом": 6407,
      "льского": 6408,
      " мета": 6409,
      " департамента": 6410,
      "ведении": 6411,
      " джа": 6412,
      " наркоти": 6413,
      " сорев": 6414,
      " no": 6415,
      "тт": 6416,
      " измени": 6417,
      " нашей": 6418,
      " проигра": 6419,
      " конфликт": 6420,
      "цев.": 6421,
      "мене": 6422,
      " иска": 6423,
      " недавно": 6424,
      "нам": 6425,
      "кова,": 6426,
      " лишения": 6427,
      " предложения": 6428,
      " воскресенье": 6429,
      " тенни": 6430,
      " сю": 6431,
      " вице-прем": 6432,
      " преимуще": 6433,
      " условиях": 6434,
      " факт": 6435,
      "руется": 6436,
      "стов.": 6437,
      "если": 6438,
      " сначала": 6439,
      "ap": 6440,
      " труд": 6441,
      " впослед": 6442,
      " хорошо": 6443,
      "ющихся": 6444,
      " сда": 6445,
      " поправ": 6446,
      " поступа": 6447,
      " резо": 6448,
      " ситуацию": 6449,
      " члена": 6450,
      " запо": 6451,
      " больницу": 6452,
      " эр": 6453,
      " полицейские": 6454,
      " отличи": 6455,
      " многих": 6456,
      " начальник": 6457,
      " жел": 6458,
      " решили": 6459,
      " поко": 6460,
      " супер": 6461,
      "луа": 6462,
      " телефон": 6463,
      " ro": 6464,
      "креп": 6465,
      " допро": 6466,
      " отказались": 6467,
      " найти": 6468,
      " экстреми": 6469,
      "ходе": 6470,
      "ерий": 6471,
      "ность,": 6472,
      " боро": 6473,
      "вард": 6474,
      " джи": 6475,
      " конкре": 6476,
      "ционные": 6477,
      " скончался": 6478,
      " двумя": 6479,
      "екта": 6480,
      " прока": 6481,
      " секу": 6482,
      " скорее": 6483,
      " украинских": 6484,
      " 2001": 6485,
      " пресс-кон": 6486,
      " боевиков": 6487,
      "ie": 6488,
      " экс-": 6489,
      "чик": 6490,
      "следов": 6491,
      " област": 6492,
      "роснеф": 6493,
      " учи": 6494,
      " коммер": 6495,
      " ниж": 6496,
      " облада": 6497,
      " лицен": 6498,
      " материалы": 6499,
      " промышлен": 6500,
      " режиссе": 6501,
      "ence": 6502,
      " преде": 6503,
      "чел": 6504,
      " \"я": 6505,
      "ство.": 6506,
      " водитель": 6507,
      " отношений": 6508,
      "п-": 6509,
      " дороги": 6510,
      " хокке": 6511,
      " главе": 6512,
      " mic": 6513,
      "форм": 6514,
      " улуч": 6515,
      "лые": 6516,
      "9,": 6517,
      " патри": 6518,
      "снов": 6519,
      "лян": 6520,
      " порт": 6521,
      " деле": 6522,
      " циф": 6523,
      " фер": 6524,
      " певи": 6525,
      "зывает": 6526,
      " депутаты": 6527,
      " создание": 6528,
      " резер": 6529,
      " добро": 6530,
      "вят": 6531,
      " вообще": 6532,
      " зару": 6533,
      "вить": 6534,
      "ться.": 6535,
      " чечен": 6536,
      "локо": 6537,
      " следственного": 6538,
      " посмо": 6539,
      " регистра": 6540,
      " провин": 6541,
      "зирован": 6542,
      " годам": 6543,
      " регионов": 6544,
      " гаран": 6545,
      ").\n": 6546,
      " положи": 6547,
      " отрица": 6548,
      " гло": 6549,
      " цитирует": 6550,
      " le": 6551,
      " нель": 6552,
      " название": 6553,
      "ете.ru": 6554,
      "%.": 6555,
      " худож": 6556,
      " удовлет": 6557,
      "ющем": 6558,
      " основа": 6559,
      " ива": 6560,
      " люби": 6561,
      " марш": 6562,
      " призы": 6563,
      " 32": 6564,
      " главным": 6565,
      "od": 6566,
      " знамени": 6567,
      " сау": 6568,
      " ремон": 6569,
      " выпуска": 6570,
      " режиссер": 6571,
      " подчерки": 6572,
      " агентству": 6573,
      " порядка": 6574,
      " станции": 6575,
      " губернатор": 6576,
      " исполни": 6577,
      "жению": 6578,
      "лого": 6579,
      " недоста": 6580,
      "8,": 6581,
      " кубка": 6582,
      " смарт": 6583,
      " нападения": 6584,
      " оконч": 6585,
      "енин": 6586,
      " готовы": 6587,
      "чением": 6588,
      " сообщили,": 6589,
      " придется": 6590,
      " (m": 6591,
      " номер": 6592,
      "art": 6593,
      " одновремен": 6594,
      " произошла": 6595,
      " колонии": 6596,
      " впоследствии": 6597,
      " экономики": 6598,
      " france": 6599,
      " 5,": 6600,
      " мяч": 6601,
      " украинской": 6602,
      " взаи": 6603,
      " базе": 6604,
      " «газете.ru": 6605,
      " особенно": 6606,
      " назвали": 6607,
      " комплекса": 6608,
      "жает": 6609,
      " сом": 6610,
      " новую": 6611,
      " систему": 6612,
      " ауди": 6613,
      " встрети": 6614,
      " проголо": 6615,
      " ого": 6616,
      " сообщалось": 6617,
      "клон": 6618,
      " прошед": 6619,
      " утверждает,": 6620,
      " друг": 6621,
      "ik": 6622,
      "гах": 6623,
      " другими": 6624,
      "нении": 6625,
      " ван": 6626,
      " километров": 6627,
      "ссу": 6628,
      " ракеты": 6629,
      "ании,": 6630,
      " press.": 6631,
      " прото": 6632,
      " news": 6633,
      " самми": 6634,
      " соревнов": 6635,
      "дение": 6636,
      "ем.": 6637,
      " объясня": 6638,
      " ag": 6639,
      "-тасс": 6640,
      " новая": 6641,
      " ке": 6642,
      " состояние": 6643,
      "se": 6644,
      "онали": 6645,
      "-би": 6646,
      " первая": 6647,
      " рассказала": 6648,
      " основе": 6649,
      "барди": 6650,
      " московскому": 6651,
      " текущего": 6652,
      "зву": 6653,
      " 2002": 6654,
      " штата": 6655,
      " ряда": 6656,
      " эксп": 6657,
      "тп": 6658,
      "ческом": 6659,
      " вру": 6660,
      "-с": 6661,
      " мчс": 6662,
      " территори": 6663,
      " занимает": 6664,
      " провели": 6665,
      " визи": 6666,
      " \"мы": 6667,
      " телеканала": 6668,
      " зве": 6669,
      " силь": 6670,
      " всю": 6671,
      " подписал": 6672,
      " тело": 6673,
      " запрет": 6674,
      "тое": 6675,
      "ксуаль": 6676,
      "това": 6677,
      " процента,": 6678,
      " сми,": 6679,
      " ура": 6680,
      " ранее,": 6681,
      " собирается": 6682,
      " государств": 6683,
      "россия": 6684,
      " принадлежит": 6685,
      "мую": 6686,
      " правозащит": 6687,
      " возможно,": 6688,
      " девять": 6689,
      "ющими": 6690,
      " напомина": 6691,
      "ру,": 6692,
      " медведев": 6693,
      " лидеров": 6694,
      "регули": 6695,
      " сфере": 6696,
      " 90": 6697,
      "мира": 6698,
      "шенных": 6699,
      "ком,": 6700,
      "вольно": 6701,
      " чечни": 6702,
      " домаш": 6703,
      " норве": 6704,
      " невозмо": 6705,
      " аэропорта": 6706,
      " референ": 6707,
      " сообщение": 6708,
      "тура": 6709,
      "сных": 6710,
      " объедин": 6711,
      " руководителя": 6712,
      " молоде": 6713,
      "дник": 6714,
      "бий": 6715,
      " крупнейших": 6716,
      " различных": 6717,
      " пообещал": 6718,
      " вре": 6719,
      " 196": 6720,
      " бель": 6721,
      " израиля": 6722,
      " проходит": 6723,
      " борьбы": 6724,
      " ключе": 6725,
      " компьют": 6726,
      " кэ": 6727,
      " водо": 6728,
      " николай": 6729,
      " отправ": 6730,
      "суди": 6731,
      " изби": 6732,
      " сказал,": 6733,
      " отчет": 6734,
      " рынок": 6735,
      "ений.": 6736,
      " прежде": 6737,
      "press": 6738,
      " and": 6739,
      " нена": 6740,
      " взаимо": 6741,
      " эсто": 6742,
      " федерального": 6743,
      " гей": 6744,
      " тех,": 6745,
      " шай": 6746,
      " киеве": 6747,
      " разде": 6748,
      " выступления": 6749,
      "дру": 6750,
      " сопрово": 6751,
      " предварительным": 6752,
      " шах": 6753,
      " акция": 6754,
      " \"ру": 6755,
      " (по": 6756,
      " появ": 6757,
      " настаи": 6758,
      "н-": 6759,
      " мнение": 6760,
      " менее,": 6761,
      "а,": 6762,
      "кой,": 6763,
      "ными.": 6764,
      " эфире": 6765,
      " назначен": 6766,
      " yout": 6767,
      "est": 6768,
      "нуко": 6769,
      " опубликова": 6770,
      "фы": 6771,
      "щу": 6772,
      " акаде": 6773,
      " машин": 6774,
      "our": 6775,
      "циональ": 6776,
      " for": 6777,
      " учеб": 6778,
      " модель": 6779,
      "зацию": 6780,
      " размер": 6781,
      "az": 6782,
      "сторон": 6783,
      " кирги": 6784,
      " японии": 6785,
      "lin": 6786,
      "гали": 6787,
      " белорусси": 6788,
      " фонд": 6789,
      " меда": 6790,
      " инфра": 6791,
      " следователи": 6792,
      "джер": 6793,
      " потреби": 6794,
      " мето": 6795,
      "пор": 6796,
      " am": 6797,
      " отдела": 6798,
      " наличи": 6799,
      "сов.": 6800,
      "волю": 6801,
      " micros": 6802,
      " мон": 6803,
      " обеща": 6804,
      " денег": 6805,
      "лил": 6806,
      " внутри": 6807,
      " «до": 6808,
      " военно-": 6809,
      "слам": 6810,
      "зм": 6811,
      "валось": 6812,
      " констан": 6813,
      " сторона": 6814,
      "швили": 6815,
      " осуществля": 6816,
      " украины,": 6817,
      " «мо": 6818,
      " обмен": 6819,
      " ввп": 6820,
      " куда": 6821,
      " юриди": 6822,
      "oc": 6823,
      " программа": 6824,
      "рина": 6825,
      " музыка": 6826,
      "рок": 6827,
      " группо": 6828,
      "дца": 6829,
      " «ма": 6830,
      "мого": 6831,
      " youtub": 6832,
      " пан": 6833,
      " 2000": 6834,
      "гатив": 6835,
      " почему": 6836,
      " види": 6837,
      " анато": 6838,
      " отечествен": 6839,
      " хочет": 6840,
      "тым": 6841,
      " необходимости": 6842,
      " обраща": 6843,
      " производства": 6844,
      " протяжении": 6845,
      " рф.": 6846,
      " развити": 6847,
      "зербай": 6848,
      " \"аль": 6849,
      "тической": 6850,
      " агре": 6851,
      " проголосо": 6852,
      "чит": 6853,
      "лова": 6854,
      " дтп": 6855,
      "roup": 6856,
      " снима": 6857,
      " убийство": 6858,
      "паса": 6859,
      " государственного": 6860,
      "ходить": 6861,
      "чиков": 6862,
      " авторы": 6863,
      " холдин": 6864,
      "йте": 6865,
      " полицейских": 6866,
      " следующий": 6867,
      " эксплуа": 6868,
      "нии,": 6869,
      "ii": 6870,
      "ники,": 6871,
      ":2": 6872,
      "стров": 6873,
      "сред": 6874,
      " намерены": 6875,
      " границы": 6876,
      " относительно": 6877,
      " второе": 6878,
      " проблема": 6879,
      " сеть": 6880,
      " фору": 6881,
      " самолетов": 6882,
      "стить": 6883,
      " спорта": 6884,
      " профессиональ": 6885,
      " кам": 6886,
      " сообщается,": 6887,
      " каждо": 6888,
      " лучше": 6889,
      " выру": 6890,
      "против": 6891,
      "дам": 6892,
      " крыма": 6893,
      " домо": 6894,
      "ром,": 6895,
      " венесу": 6896,
      " \"но": 6897,
      " кнд": 6898,
      "вшую": 6899,
      "му.": 6900,
      " удо": 6901,
      " наши": 6902,
      " потра": 6903,
      " местные": 6904,
      "дерни": 6905,
      "дов.": 6906,
      " евгений": 6907,
      "ровых": 6908,
      " докла": 6909,
      " секре": 6910,
      "щенко": 6911,
      " аэропорту": 6912,
      " ближайшие": 6913,
      " обвинение": 6914,
      " случае,": 6915,
      " взор": 6916,
      " трени": 6917,
      " цб": 6918,
      " исследования": 6919,
      " участием": 6920,
      " сбо": 6921,
      " стрель": 6922,
      " защиты": 6923,
      " мекси": 6924,
      "ers": 6925,
      "лок": 6926,
      " интерес": 6927,
      " смог": 6928,
      " аль-": 6929,
      " самый": 6930,
      " повер": 6931,
      " microsoft": 6932,
      " бол": 6933,
      "цы,": 6934,
      "щена": 6935,
      " активно": 6936,
      " фра": 6937,
      " основной": 6938,
      " прошли": 6939,
      " (и": 6940,
      " спут": 6941,
      "лод": 6942,
      " евро.": 6943,
      "ковой": 6944,
      " снова": 6945,
      " издания": 6946,
      " просьбой": 6947,
      " пользователей": 6948,
      " последних": 6949,
      " поставки": 6950,
      " крупных": 6951,
      " линии": 6952,
      " позволяет": 6953,
      " простран": 6954,
      " избе": 6955,
      "ложения": 6956,
      "преде": 6957,
      " \"ка": 6958,
      " жела": 6959,
      " школы": 6960,
      " договорен": 6961,
      " оказалась": 6962,
      " хозяй": 6963,
      " реша": 6964,
      "зне": 6965,
      "лись,": 6966,
      "ых": 6967,
      " образования": 6968,
      " партнер": 6969,
      "возгла": 6970,
      "-восто": 6971,
      "знен": 6972,
      " перене": 6973,
      " всемир": 6974,
      " пожи": 6975,
      "купа": 6976,
      "гой": 6977,
      " разных": 6978,
      " президенту": 6979,
      "ork": 6980,
      " потерпе": 6981,
      "ского,": 6982,
      " порту": 6983,
      " радиостан": 6984,
      " инстру": 6985,
      " оа": 6986,
      "гами": 6987,
      " создании": 6988,
      "тар-тасс": 6989,
      " прибли": 6990,
      " сотрудник": 6991,
      " авиакомпании": 6992,
      " механи": 6993,
      "руя": 6994,
      "ге,": 6995,
      "ном,": 6996,
      " тимошенко": 6997,
      " жертва": 6998,
      " азербай": 6999,
      "мани": 7000,
      "рг": 7001,
      " погранич": 7002,
      "лке": 7003,
      " отмечает,": 7004,
      " сентября,": 7005,
      "ктом": 7006,
      " работал": 7007,
      "тисти": 7008,
      " конта": 7009,
      " машины": 7010,
      " выйти": 7011,
      "фин": 7012,
      "бр": 7013,
      "кистана": 7014,
      " подобные": 7015,
      " минимум": 7016,
      " пресс-релизе": 7017,
      "солют": 7018,
      " предна": 7019,
      " рассказыва": 7020,
      " попал": 7021,
      " позиции": 7022,
      "ду.": 7023,
      " камер": 7024,
      "ция,": 7025,
      " темпера": 7026,
      " брон": 7027,
      " турнира": 7028,
      " килограм": 7029,
      " сбер": 7030,
      "тила": 7031,
      " выхода": 7032,
      " bo": 7033,
      " олег": 7034,
      "прома": 7035,
      " негатив": 7036,
      "тельную": 7037,
      "довать": 7038,
      "av": 7039,
      " онлай": 7040,
      " перевоз": 7041,
      " письмо": 7042,
      " премьер-министра": 7043,
      "едини": 7044,
      " получит": 7045,
      " итар-тасс": 7046,
      "ванию": 7047,
      " пострадали": 7048,
      " модерни": 7049,
      "зий": 7050,
      " новым": 7051,
      "ева,": 7052,
      " целом": 7053,
      "40": 7054,
      " запла": 7055,
      " подряд": 7056,
      " вся": 7057,
      " гендиректо": 7058,
      " teleg": 7059,
      " директоров": 7060,
      " продю": 7061,
      " восьми": 7062,
      " своими": 7063,
      " проведение": 7064,
      " ресто": 7065,
      "ско-": 7066,
      " образ": 7067,
      " подс": 7068,
      " ца": 7069,
      " генеральный": 7070,
      "тельная": 7071,
      " прохо": 7072,
      " дочер": 7073,
      " появились": 7074,
      " момента": 7075,
      "вшейся": 7076,
      " 2020": 7077,
      " вице-президен": 7078,
      " исполня": 7079,
      " 150": 7080,
      " самостоя": 7081,
      "смотрен": 7082,
      " 400": 7083,
      "купи": 7084,
      "рабаты": 7085,
      "ное,": 7086,
      " пользователи": 7087,
      " полуо": 7088,
      " инте": 7089,
      " оказыва": 7090,
      " бесе": 7091,
      " автомобиль": 7092,
      "ht": 7093,
      " недвижимости": 7094,
      "кой.": 7095,
      "тического": 7096,
      "силь": 7097,
      "пись": 7098,
      " друз": 7099,
      " сп": 7100,
      " зарубе": 7101,
      " вошли": 7102,
      " тари": 7103,
      "ца,": 7104,
      " проверки": 7105,
      " сложности": 7106,
      "ственные": 7107,
      " религи": 7108,
      " эксперти": 7109,
      " пав": 7110,
      " 75": 7111,
      " мэра": 7112,
      " наказание": 7113,
      " индекс": 7114,
      " национального": 7115,
      " реклам": 7116,
      "тко": 7117,
      "ровки": 7118,
      " годах": 7119,
      " создания": 7120,
      " осень": 7121,
      " усили": 7122,
      "нопо": 7123,
      " заключения": 7124,
      " рассказали": 7125,
      "ги,": 7126,
      " залож": 7127,
      " новое": 7128,
      " команди": 7129,
      " обвинили": 7130,
      " сделки": 7131,
      " саудов": 7132,
      "ский,": 7133,
      " зрения": 7134,
      "горо": 7135,
      " моти": 7136,
      "сем": 7137,
      " неделе": 7138,
      " кер": 7139,
      "аний,": 7140,
      "горе": 7141,
      " маршру": 7142,
      " октября,": 7143,
      " утра": 7144,
      " американская": 7145,
      " дал": 7146,
      " лав": 7147,
      "лись.": 7148,
      "сят": 7149,
      " блоки": 7150,
      " первых": 7151,
      " чемпионов": 7152,
      "сей": 7153,
      " нава": 7154,
      " школь": 7155,
      " напи": 7156,
      " следствие": 7157,
      " тонн": 7158,
      " сезона": 7159,
      "op": 7160,
      " делега": 7161,
      "ге.": 7162,
      "к»": 7163,
      "чики": 7164,
      " связано": 7165,
      " россияне": 7166,
      " напря": 7167,
      "стве.": 7168,
      " ипоте": 7169,
      "гает": 7170,
      "т-": 7171,
      " украинские": 7172,
      " чрез": 7173,
      "коном": 7174,
      " отставку": 7175,
      " 33": 7176,
      "ти,": 7177,
      " одновременно": 7178,
      " сообще": 7179,
      " группировки": 7180,
      " исключи": 7181,
      " азербайдж": 7182,
      " уро": 7183,
      " делать": 7184,
      " премии": 7185,
      "способ": 7186,
      " януко": 7187,
      " предложили": 7188,
      " группе": 7189,
      " работают": 7190,
      "мас": 7191,
      "жан": 7192,
      " рубе": 7193,
      " (на": 7194,
      " лиши": 7195,
      "ob": 7196,
      "евро": 7197,
      " характер": 7198,
      " вышла": 7199,
      " семей": 7200,
      " разби": 7201,
      " «ру": 7202,
      "енко": 7203,
      " ах": 7204,
      "том.": 7205,
      " выяснилось,": 7206,
      " эпизо": 7207,
      " ими": 7208,
      " основном": 7209,
      " оль": 7210,
      "декса": 7211,
      "ностя": 7212,
      " тасс.": 7213,
      "тории": 7214,
      "'s": 7215,
      " числа": 7216,
      " наруши": 7217,
      " въ": 7218,
      " домов": 7219,
      " национали": 7220,
      " зву": 7221,
      " тамо": 7222,
      " посад": 7223,
      " «со": 7224,
      "лся.": 7225,
      " каких": 7226,
      " инфраструкту": 7227,
      "нова,": 7228,
      "ка»": 7229,
      "а.": 7230,
      " даге": 7231,
      " июля,": 7232,
      " подозр": 7233,
      "динамо": 7234,
      "ind": 7235,
      " консо": 7236,
      " \"ро": 7237,
      " прошел": 7238,
      " сказала": 7239,
      " мая,": 7240,
      " эн": 7241,
      " доля": 7242,
      " умень": 7243,
      " матчей": 7244,
      " афри": 7245,
      " новости,": 7246,
      "визи": 7247,
      " обыгра": 7248,
      " пришли": 7249,
      " марта,": 7250,
      " урегули": 7251,
      "сах": 7252,
      " пересе": 7253,
      " реализо": 7254,
      " шоу": 7255,
      " июня,": 7256,
      "к\"": 7257,
      " значительно": 7258,
      " компанией": 7259,
      " фрак": 7260,
      " утверждают,": 7261,
      " акционе": 7262,
      "шено": 7263,
      " футболу": 7264,
      " заинтере": 7265,
      "стка": 7266,
      " производство": 7267,
      " фунтов": 7268,
      " кампании": 7269,
      " соба": 7270,
      " области,": 7271,
      " выгля": 7272,
      "ина": 7273,
      " оби": 7274,
      " робер": 7275,
      " клин": 7276,
      " третий": 7277,
      " оскор": 7278,
      "пят": 7279,
      " обратился": 7280,
      " 202": 7281,
      " статисти": 7282,
      "»).": 7283,
      " cn": 7284,
      " отды": 7285,
      " сентября.": 7286,
      "здни": 7287,
      " скорость": 7288,
      "яр": 7289,
      "мед": 7290,
      " хими": 7291,
      " мэр": 7292,
      " пассажир": 7293,
      "менты": 7294,
      "-э": 7295,
      "вершен": 7296,
      " огонь": 7297,
      " существо": 7298,
      " пассажиров": 7299,
      "жнему": 7300,
      " арест": 7301,
      " гиб": 7302,
      " соединен": 7303,
      " беспла": 7304,
      " брю": 7305,
      "-про": 7306,
      " сексуаль": 7307,
      "тит": 7308,
      "ном.": 7309,
      "гать": 7310,
      " телевид": 7311,
      " проблем": 7312,
      "сена": 7313,
      " практи": 7314,
      " станови": 7315,
      "груз": 7316,
      " украинский": 7317,
      " мусуль": 7318,
      "теле": 7319,
      " лукашенко": 7320,
      " плате": 7321,
      " рефор": 7322,
      " августа,": 7323,
      " зато": 7324,
      " ноября,": 7325,
      " федеральной": 7326,
      " экономического": 7327,
      " съем": 7328,
      " центро": 7329,
      " гибели": 7330,
      " метров.": 7331,
      " автома": 7332,
      "констру": 7333,
      " посту": 7334,
      " (j": 7335,
      "%,": 7336,
      "твор": 7337,
      " яв": 7338,
      " подозре": 7339,
      "тая": 7340,
      " другим": 7341,
      " минуте": 7342,
      "чает": 7343,
      " губернатора": 7344,
      "if": 7345,
      "ло.": 7346,
      " ара": 7347,
      "ста,": 7348,
      "рыв": 7349,
      " лебе": 7350,
      " названием": 7351,
      " столкновения": 7352,
      " инфля": 7353,
      " изначально": 7354,
      " огром": 7355,
      "стоит": 7356,
      "эро": 7357,
      ".com": 7358,
      " международных": 7359,
      " фактически": 7360,
      " королев": 7361,
      " равно": 7362,
      " продаже": 7363,
      "ский.": 7364,
      "печат": 7365,
      " арбитра": 7366,
      " констру": 7367,
      "стами": 7368,
      " закончи": 7369,
      " изви": 7370,
      " зу": 7371,
      "вшему": 7372,
      " зво": 7373,
      " сегодняш": 7374,
      " 6,": 7375,
      " показатель": 7376,
      " провод": 7377,
      " попросил": 7378,
      " старто": 7379,
      "рной": 7380,
      " апреля,": 7381,
      " госс": 7382,
      " возрасте": 7383,
      " предназна": 7384,
      " противостоя": 7385,
      " заработа": 7386,
      " вопросам": 7387,
      " декабря,": 7388,
      " такая": 7389,
      " экипажа": 7390,
      " 7,": 7391,
      "нос": 7392,
      " будем": 7393,
      "циях": 7394,
      " нарушение": 7395,
      " дерев": 7396,
      "эм": 7397,
      " путеше": 7398,
      " возле": 7399,
      " стоимости": 7400,
      "рово": 7401,
      " бор": 7402,
      " социальных": 7403,
      " group": 7404,
      "ash": 7405,
      "груп": 7406,
      " бога": 7407,
      " обеспечи": 7408,
      " задол": 7409,
      " положение": 7410,
      "нику": 7411,
      " опубликовал": 7412,
      " арген": 7413,
      "се,": 7414,
      " террористи": 7415,
      " напа": 7416,
      " сделан": 7417,
      "метров": 7418,
      " площадь": 7419,
      "are": 7420,
      " лич": 7421,
      " 37": 7422,
      " культуры": 7423,
      " воскресенье,": 7424,
      "менте": 7425,
      " яро": 7426,
      " финансов": 7427,
      " мошенни": 7428,
      " \"до": 7429,
      " саа": 7430,
      "10": 7431,
      " отвер": 7432,
      " сезоне": 7433,
      " санкций": 7434,
      " ограничения": 7435,
      " октября.": 7436,
      "ника.": 7437,
      "оны": 7438,
      " заказ": 7439,
      " превра": 7440,
      "гора": 7441,
      "мым": 7442,
      "каун": 7443,
      " сильно": 7444,
      " одержа": 7445,
      " режима": 7446,
      "вето": 7447,
      " упал": 7448,
      "тельство": 7449,
      " ущерб": 7450,
      " руководством": 7451,
      " высказа": 7452,
      " обслужи": 7453,
      " судья": 7454,
      "йн": 7455,
      "ет.": 7456,
      " ассоциации": 7457,
      "ton": 7458,
      " сложи": 7459,
      " \"интерфакс\"": 7460,
      "жали": 7461,
      " предполагается,": 7462,
      "село": 7463,
      " страхо": 7464,
      " соблю": 7465,
      " pl": 7466,
      "тации": 7467,
      "се.": 7468,
      " института": 7469,
      "кому": 7470,
      "вано": 7471,
      " боевики": 7472,
      "тона": 7473,
      " дени": 7474,
      " руководства": 7475,
      " начало": 7476,
      " трилли": 7477,
      "кей": 7478,
      " евросоюза": 7479,
      " непосред": 7480,
      " систем": 7481,
      " симво": 7482,
      "слен": 7483,
      "ряс": 7484,
      " документы": 7485,
      " депутатов": 7486,
      "лку": 7487,
      " плохо": 7488,
      "ческими": 7489,
      " странах": 7490,
      " всему": 7491,
      " en": 7492,
      " начальника": 7493,
      "нила": 7494,
      " крас": 7495,
      "дах": 7496,
      " спас": 7497,
      " сх": 7498,
      " признан": 7499,
      " абсолют": 7500,
      " годо": 7501,
      " должности": 7502,
      " пото": 7503,
      " молда": 7504,
      "ственного": 7505,
      "меть": 7506,
      " испании": 7507,
      " животных": 7508,
      "нодоро": 7509,
      "вей": 7510,
      " диза": 7511,
      " осна": 7512,
      " рубля": 7513,
      " намерена": 7514,
      "хранения": 7515,
      " кады": 7516,
      "терин": 7517,
      " представляет": 7518,
      " бед": 7519,
      " писто": 7520,
      " знако": 7521,
      " занимается": 7522,
      "аний.": 7523,
      " развитие": 7524,
      " экспери": 7525,
      " мм": 7526,
      "-прежнему": 7527,
      " 38": 7528,
      " инцидента": 7529,
      "ницей": 7530,
      " бизнесмен": 7531,
      " тера": 7532,
      "вец": 7533,
      " учиты": 7534,
      "мый": 7535,
      " высказы": 7536,
      " страну": 7537,
      " бара": 7538,
      "кциони": 7539,
      "выше": 7540,
      "ta": 7541,
      " жилья": 7542,
      " уволь": 7543,
      " входит": 7544,
      " социальной": 7545,
      " здра": 7546,
      "гового": 7547,
      " начать": 7548,
      " июля.": 7549,
      " \"про": 7550,
      "сток": 7551,
      " эколо": 7552,
      "ровании": 7553,
      "кл": 7554,
      " вя": 7555,
      " мос": 7556,
      " праздни": 7557,
      " сторону": 7558,
      " появля": 7559,
      " прошла": 7560,
      " приговорен": 7561,
      "блоки": 7562,
      " власть": 7563,
      " осети": 7564,
      " взят": 7565,
      "хл": 7566,
      " мю": 7567,
      "ьян": 7568,
      "центра": 7569,
      " по-прежнему": 7570,
      " существу": 7571,
      "de": 7572,
      " события": 7573,
      "днев": 7574,
      " он,": 7575,
      " вин": 7576,
      " изъя": 7577,
      " 34": 7578,
      " журналисты": 7579,
      "худ": 7580,
      "юсь": 7581,
      "ру.": 7582,
      " южно": 7583,
      "qu": 7584,
      " друга": 7585,
      " запусти": 7586,
      " номина": 7587,
      " верховной": 7588,
      "ведомости": 7589,
      " тела": 7590,
      " подгото": 7591,
      "ту.": 7592,
      " объектов": 7593,
      "т»": 7594,
      " «при": 7595,
      " марта.": 7596,
      " \"ко": 7597,
      " ar": 7598,
      " выстре": 7599,
      " бомбарди": 7600,
      " оправ": 7601,
      " комиссия": 7602,
      " портал": 7603,
      " воспо": 7604,
      " михаила": 7605,
      "чается": 7606,
      "стных": 7607,
      " ребенка": 7608,
      " российском": 7609,
      " поклон": 7610,
      "дзе": 7611,
      " реализации": 7612,
      " церкви": 7613,
      " оппозиции": 7614,
      " транспорта": 7615,
      " ведет": 7616,
      "лить": 7617,
      " магни": 7618,
      "-би-си": 7619,
      "тую": 7620,
      " предусмотрен": 7621,
      " дмитрия": 7622,
      "тина": 7623,
      "ell": 7624,
      " мая.": 7625,
      " передачи": 7626,
      " неуда": 7627,
      " остальные": 7628,
      "щений": 7629,
      " обязанности": 7630,
      " компьютер": 7631,
      " железнодоро": 7632,
      " попали": 7633,
      " проде": 7634,
      " фигуран": 7635,
      " приговор": 7636,
      " начался": 7637,
      " ам": 7638,
      " вернуть": 7639,
      " отметили,": 7640,
      " наших": 7641,
      " инспе": 7642,
      " пого": 7643,
      " клич": 7644,
      "мета": 7645,
      " субботу,": 7646,
      " человека.": 7647,
      "зе,": 7648,
      " многочис": 7649,
      " среднем": 7650,
      " рождения": 7651,
      " международный": 7652,
      "ка\"": 7653,
      " компози": 7654,
      " отка": 7655,
      "ющиеся": 7656,
      " ды": 7657,
      "тана": 7658,
      "оте": 7659,
      " началась": 7660,
      " пресс-службы": 7661,
      "ge": 7662,
      "стане": 7663,
      " процентов,": 7664,
      " z": 7665,
      "тс": 7666,
      " выполня": 7667,
      " веще": 7668,
      " лета": 7669,
      " режим": 7670,
      " договор": 7671,
      " лицо": 7672,
      " замо": 7673,
      " нельзя": 7674,
      " объявили": 7675,
      " #": 7676,
      " обнаро": 7677,
      "ром.": 7678,
      " журналистам": 7679,
      "ание,": 7680,
      " сигна": 7681,
      " предприятия": 7682,
      " главой": 7683,
      " тому": 7684,
      " боевых": 7685,
      " европейских": 7686,
      " будущем": 7687,
      " \"новости\".": 7688,
      " возму": 7689,
      "выбор": 7690,
      " gu": 7691,
      "седни": 7692,
      " пакет": 7693,
      " полиции,": 7694,
      "что": 7695,
      " привлека": 7696,
      " ноября.": 7697,
      " лично": 7698,
      " сократи": 7699,
      " застре": 7700,
      " дети": 7701,
      " корреспондент": 7702,
      " она.": 7703,
      "о.": 7704,
      " прокомментировал": 7705,
      "ными,": 7706,
      " информации,": 7707,
      " вырос": 7708,
      " программ": 7709,
      " начались": 7710,
      "жеб": 7711,
      " ними": 7712,
      " квартале": 7713,
      " компанию": 7714,
      " сним": 7715,
      " «во": 7716,
      "хам": 7717,
      " post": 7718,
      " женщины": 7719,
      " женщин": 7720,
      " копи": 7721,
      " вышли": 7722,
      " астро": 7723,
      " марки": 7724,
      " отказыва": 7725,
      " чуть": 7726,
      " подразделения": 7727,
      " кири": 7728,
      " семьи": 7729,
      " венесуэ": 7730,
      " уг": 7731,
      " предстоит": 7732,
      " обру": 7733,
      "-на": 7734,
      "рож": 7735,
      "щиков": 7736,
      " \"мо": 7737,
      " программу": 7738,
      " предоставля": 7739,
      " фрон": 7740,
      " твер": 7741,
      " замет": 7742,
      " стер": 7743,
      "-4": 7744,
      " агентства,": 7745,
      " врачи": 7746,
      "вы,": 7747,
      " бирже": 7748,
      " говорить": 7749,
      " жертв": 7750,
      "льской": 7751,
      " свыше": 7752,
      " 55": 7753,
      " пошли": 7754,
      " принимать": 7755,
      " больше,": 7756,
      " адре": 7757,
      " угрозы": 7758,
      " банки": 7759,
      " столкну": 7760,
      " хотят": 7761,
      " любо": 7762,
      "таго": 7763,
      " u": 7764,
      " июня.": 7765,
      "кут": 7766,
      " атмос": 7767,
      " петр": 7768,
      " масштаб": 7769,
      " «газете.ru»": 7770,
      " новостей": 7771,
      " конечно,": 7772,
      " игр": 7773,
      " экспорт": 7774,
      " потреб": 7775,
      " городской": 7776,
      " вмеша": 7777,
      " объяснил": 7778,
      " син": 7779,
      " ответственности": 7780,
      " правоохранительные": 7781,
      " отмечается": 7782,
      " радика": 7783,
      "веду": 7784,
      "ложение": 7785,
      " правила": 7786,
      "фона": 7787,
      "ници": 7788,
      " обеспечения": 7789,
      "ремя": 7790,
      " коле": 7791,
      "фу": 7792,
      " леони": 7793,
      " участвовать": 7794,
      " вет": 7795,
      " снижение": 7796,
      " администрация": 7797,
      " разбира": 7798,
      "стры": 7799,
      " апреля.": 7800,
      " психо": 7801,
      " ленин": 7802,
      " приходится": 7803,
      " называют": 7804,
      " моз": 7805,
      " частью": 7806,
      " титу": 7807,
      " граждана": 7808,
      "вычай": 7809,
      " подал": 7810,
      "end": 7811,
      "льному": 7812,
      " пройдут": 7813,
      " потенциаль": 7814,
      " большая": 7815,
      " постоянно": 7816,
      " уилья": 7817,
      " легко": 7818,
      " устанавли": 7819,
      " контракта": 7820,
      " третьем": 7821,
      "твра": 7822,
      " палаты": 7823,
      " дочь": 7824,
      " воло": 7825,
      "мерикан": 7826,
      " использование": 7827,
      " заместителя": 7828,
      " предстоя": 7829,
      " востоке": 7830,
      " ази": 7831,
      " провинции": 7832,
      " песков": 7833,
      " лидером": 7834,
      " хода": 7835,
      "тным": 7836,
      " бежен": 7837,
      "ность.": 7838,
      "щихся": 7839,
      "man": 7840,
      " мероприятия": 7841,
      " семья": 7842,
      " альян": 7843,
      " помочь": 7844,
      "воо": 7845,
      " дни": 7846,
      " давно": 7847,
      " недоволь": 7848,
      " ведомство": 7849,
      " модели": 7850,
      " дефици": 7851,
      " стран,": 7852,
      " ввести": 7853,
      "ниципа": 7854,
      " больнице": 7855,
      " главной": 7856,
      " информацион": 7857,
      " причины": 7858,
      " паци": 7859,
      " орби": 7860,
      " минима": 7861,
      " религиоз": 7862,
      " объединен": 7863,
      " узбе": 7864,
      " отказ": 7865,
      " убы": 7866,
      " ограничи": 7867,
      " тут": 7868,
      "мут": 7869,
      " держа": 7870,
      " звез": 7871,
      "куль": 7872,
      " нападение": 7873,
      "рав": 7874,
      "вшими": 7875,
      " дать": 7876,
      " предотвра": 7877,
      "филь": 7878,
      "вто": 7879,
      " настоящий": 7880,
      "лина": 7881,
      " отказалась": 7882,
      " кого": 7883,
      " осенью": 7884,
      "ление,": 7885,
      " пакистан": 7886,
      " смерть": 7887,
      " пресс-служба": 7888,
      " совместно": 7889,
      " служеб": 7890,
      " опо": 7891,
      "ah": 7892,
      " inter": 7893,
      " подписан": 7894,
      " отказаться": 7895,
      " увеличить": 7896,
      "-у": 7897,
      " вернуться": 7898,
      " ra": 7899,
      " хри": 7900,
      " авст": 7901,
      "60": 7902,
      " досто": 7903,
      " \"со": 7904,
      " делам": 7905,
      " иметь": 7906,
      " причастности": 7907,
      " честь": 7908,
      " дважды": 7909,
      "чью": 7910,
      " признали": 7911,
      " проводить": 7912,
      " действие": 7913,
      " списке": 7914,
      "цией.": 7915,
      " британский": 7916,
      "зить": 7917,
      " декабря.": 7918,
      " рф,": 7919,
      " сотрудника": 7920,
      " автомобиля": 7921,
      " год,": 7922,
      " рейтинг": 7923,
      " ким": 7924,
      "ехал": 7925,
      " бокс": 7926,
      "теля,": 7927,
      " индий": 7928,
      " фана": 7929,
      " хан": 7930,
      " беспи": 7931,
      " мусульман": 7932,
      " шпи": 7933,
      " полузащит": 7934,
      "дне": 7935,
      " мора": 7936,
      " милиции": 7937,
      "ссы": 7938,
      "ябрь": 7939,
      " могла": 7940,
      " границе": 7941,
      " филип": 7942,
      "страи": 7943,
      " \"юко": 7944,
      " премьера": 7945,
      " обвинил": 7946,
      "нси": 7947,
      "ky": 7948,
      " назы": 7949,
      "право": 7950,
      " заболе": 7951,
      " очередной": 7952,
      "езде": 7953,
      " глоба": 7954,
      "ются,": 7955,
      " кандидату": 7956,
      " января,": 7957,
      " поддержки": 7958,
      "ure": 7959,
      " февраля,": 7960,
      " заключен": 7961,
      " установить": 7962,
      "дации": 7963,
      " операция": 7964,
      " объявила": 7965,
      " врата": 7966,
      " считается": 7967,
      "л\"": 7968,
      " китая": 7969,
      "разви": 7970,
      "постав": 7971,
      " саака": 7972,
      "гент": 7973,
      " главу": 7974,
      " рестора": 7975,
      " это,": 7976,
      " занял": 7977,
      "корей": 7978,
      " дер": 7979,
      " картины": 7980,
      " вице-премьер": 7981,
      " рен": 7982,
      " точки": 7983,
      " выдели": 7984,
      " виктора": 7985,
      " море": 7986,
      " стаби": 7987,
      " предвыбор": 7988,
      " рав": 7989,
      " «бо": 7990,
      " пентаго": 7991,
      "фикации": 7992,
      " киева": 7993,
      " луган": 7994,
      " депутата": 7995,
      " поверх": 7996,
      " андрея": 7997,
      " заха": 7998,
      " павел": 7999,
      " выступает": 8000,
      " соответствен": 8001,
      "тельном": 8002,
      "ждению": 8003,
      " италии": 8004,
      " кризиса": 8005,
      " крайне": 8006,
      " калифор": 8007,
      " думаю,": 8008,
      " уста": 8009,
      " чрезвычай": 8010,
      " захо": 8011,
      "ведом": 8012,
      " (а": 8013,
      "нал": 8014,
      " ссср": 8015,
      " террористической": 8016,
      " восстанови": 8017,
      " inst": 8018,
      " правил": 8019,
      " обеспечить": 8020,
      " лебеде": 8021,
      " командов": 8022,
      " подъ": 8023,
      " предложен": 8024,
      " также,": 8025,
      "полне": 8026,
      " зака": 8027,
      " покинуть": 8028,
      " жили": 8029,
      "гий": 8030,
      " прямо": 8031,
      " забра": 8032,
      " каби": 8033,
      " той": 8034,
      " пытались": 8035,
      " прошлой": 8036,
      "сибир": 8037,
      "дила": 8038,
      "ь,": 8039,
      " едино": 8040,
      "о,": 8041,
      "та»": 8042,
      " группу": 8043,
      " вертолет": 8044,
      "ллер": 8045,
      " пит": 8046,
      " рады": 8047,
      " вступ": 8048,
      "ками.": 8049,
      " резолю": 8050,
      "зывают": 8051,
      "ги.": 8052,
      " готови": 8053,
      "тное": 8054,
      " кндр": 8055,
      " общего": 8056,
      " известный": 8057,
      " новом": 8058,
      " ip": 8059,
      " собесед": 8060,
      " воды": 8061,
      "тся,": 8062,
      " празд": 8063,
      " оценивается": 8064,
      " избран": 8065,
      "дел": 8066,
      "льными": 8067,
      "конта": 8068,
      " регионального": 8069,
      "дами": 8070,
      "бера": 8071,
      "сован": 8072,
      " посте": 8073,
      " процесса": 8074,
      " уступи": 8075,
      "носи": 8076,
      " бюро": 8077,
      "вай": 8078,
      " заби": 8079,
      "одо": 8080,
      "шены": 8081,
      "альной": 8082,
      " виру": 8083,
      " содержи": 8084,
      "милли": 8085,
      " прибыли": 8086,
      "леку": 8087,
      "ментов": 8088,
      " изо": 8089,
      " cnn": 8090,
      " уди": 8091,
      " появился": 8092,
      " августа.": 8093,
      " поедин": 8094,
      " «бе": 8095,
      " разреши": 8096,
      "нений": 8097,
      " отделения": 8098,
      " миллион": 8099,
      " выйдет": 8100,
      "ционеры": 8101,
      "ками,": 8102,
      "ково": 8103,
      " продолжает": 8104,
      " недель": 8105,
      " президенты": 8106,
      " ii": 8107,
      " энерго": 8108,
      " алексея": 8109,
      "бю": 8110,
      " сколько": 8111,
      " пытался": 8112,
      " силови": 8113,
      " оружие": 8114,
      " политических": 8115,
      " ворота": 8116,
      " употреб": 8117,
      " построи": 8118,
      " множе": 8119,
      " газете": 8120,
      " москве.": 8121,
      "рного": 8122,
      " стоя": 8123,
      " местному": 8124,
      " добиться": 8125,
      " муниципа": 8126,
      " корпу": 8127,
      "вшее": 8128,
      " 42": 8129,
      " мигран": 8130,
      " референду": 8131,
      " распространя": 8132,
      " общая": 8133,
      " этого,": 8134,
      " часа": 8135,
      " счета": 8136,
      "кова.": 8137,
      " плю": 8138,
      " падения": 8139,
      " военный": 8140,
      " задержанных": 8141,
      " собеседник": 8142,
      " 194": 8143,
      "меди": 8144,
      " пле": 8145,
      "эк": 8146,
      " журналистов": 8147,
      " охран": 8148,
      " резко": 8149,
      " говорится,": 8150,
      " ближ": 8151,
      "зировать": 8152,
      " пройти": 8153,
      " выбора": 8154,
      "ational": 8155,
      " техники": 8156,
      " подтвержда": 8157,
      "лум": 8158,
      " исче": 8159,
      " некото": 8160,
      " обстоятельства": 8161,
      " же,": 8162,
      " эвакуи": 8163,
      "цией,": 8164,
      " опол": 8165,
      " контин": 8166,
      " сформи": 8167,
      "бал": 8168,
      "уэ": 8169,
      "вере": 8170,
      "ву,": 8171,
      " намерении": 8172,
      "теров": 8173,
      "тим": 8174,
      "бина": 8175,
      " подтвердил": 8176,
      " дипломатиче": 8177,
      " ведь": 8178,
      " тому,": 8179,
      " входят": 8180,
      " получения": 8181,
      " отпу": 8182,
      "стам": 8183,
      " происходит": 8184,
      " исследователи": 8185,
      " 48": 8186,
      " активо": 8187,
      " хотел": 8188,
      " альбо": 8189,
      "лили": 8190,
      " виновным": 8191,
      " хе": 8192,
      "ком.": 8193,
      " люд": 8194,
      " президентских": 8195,
      " округа": 8196,
      "довал": 8197,
      " заседания": 8198,
      " московский": 8199,
      " записи": 8200,
      " компью": 8201,
      " приобрет": 8202,
      " отли": 8203,
      "з,": 8204,
      " france-": 8205,
      " прием": 8206,
      " выбор": 8207,
      " iph": 8208,
      " потребовал": 8209,
      " партий": 8210,
      " продаж": 8211,
      " сроки": 8212,
      "фонов": 8213,
      " британского": 8214,
      "террори": 8215,
      " повстан": 8216,
      " ай": 8217,
      " тюрем": 8218,
      "эконом": 8219,
      " «спарта": 8220,
      " отметить,": 8221,
      "ются.": 8222,
      " мира.": 8223,
      " замен": 8224,
      " фильме": 8225,
      " местного": 8226,
      " злоумышлен": 8227,
      " весной": 8228,
      "berg": 8229,
      " вполне": 8230,
      " чемпионат": 8231,
      "вий": 8232,
      " штат": 8233,
      " реконстру": 8234,
      " охо": 8235,
      " поиско": 8236,
      " террориз": 8237,
      " ид": 8238,
      "рованию": 8239,
      " ина": 8240,
      "контакте": 8241,
      "кор": 8242,
      " отмени": 8243,
      " здравоо": 8244,
      " канад": 8245,
      " времени.": 8246,
      " расходы": 8247,
      " голосования": 8248,
      "жном": 8249,
      "зь": 8250,
      "действия": 8251,
      " штаб": 8252,
      " \"се": 8253,
      " австралий": 8254,
      "og": 8255,
      " типа": 8256,
      " таможен": 8257,
      "бле": 8258,
      " останов": 8259,
      " существует": 8260,
      " генерального": 8261,
      " мать": 8262,
      "шой": 8263,
      " ред": 8264,
      " оке": 8265,
      " петербург": 8266,
      " рэ": 8267,
      "ения,": 8268,
      " коль": 8269,
      " край": 8270,
      " полуостро": 8271,
      " демонстра": 8272,
      " использования": 8273,
      " сопровожда": 8274,
      " выиграл": 8275,
      " белого": 8276,
      " приостанов": 8277,
      " com": 8278,
      " 65": 8279,
      " абха": 8280,
      " france-press": 8281,
      " класса": 8282,
      " пресс-конференции": 8283,
      "гина": 8284,
      " коор": 8285,
      "пен": 8286,
      " \"ма": 8287,
      " (s": 8288,
      " \"газпром": 8289,
      " британской": 8290,
      "рии,": 8291,
      " планируют": 8292,
      " обнаружены": 8293,
      " плен": 8294,
      " километрах": 8295,
      " программе": 8296,
      " обвиняют": 8297,
      " york": 8298,
      " сне": 8299,
      "писы": 8300,
      " меч": 8301,
      " mail": 8302,
      " араб": 8303,
      " опыт": 8304,
      " организован": 8305,
      " область": 8306,
      " подобных": 8307,
      "гал": 8308,
      " швейцар": 8309,
      "нина": 8310,
      " появится": 8311,
      "чев": 8312,
      " вашингтон": 8313,
      " совершил": 8314,
      "oom": 8315,
      " смы": 8316,
      " посмотреть": 8317,
      " повтор": 8318,
      "рс": 8319,
      "образ": 8320,
      "ank": 8321,
      " степени": 8322,
      " прине": 8323,
      " mar": 8324,
      "ore": 8325,
      " заблоки": 8326,
      " забил": 8327,
      " состоялась": 8328,
      " ираке": 8329,
      " любой": 8330,
      "жены": 8331,
      " чиновники": 8332,
      " любы": 8333,
      " приняла": 8334,
      "ссия": 8335,
      "л»": 8336,
      " платфор": 8337,
      " обнов": 8338,
      " патру": 8339,
      " пресе": 8340,
      "гуш": 8341,
      " отмечают,": 8342,
      " базы": 8343,
      " предъяви": 8344,
      " ухуд": 8345,
      " команд": 8346,
      " месторо": 8347,
      " сын": 8348,
      " государственных": 8349,
      "мах": 8350,
      " досро": 8351,
      " кредитов": 8352,
      " задолжен": 8353,
      " последствия": 8354,
      " секто": 8355,
      " финансовой": 8356,
      " земе": 8357,
      " эм": 8358,
      " последним": 8359,
      " огне": 8360,
      "ис": 8361,
      " 39": 8362,
      " фан": 8363,
      " завое": 8364,
      "дон": 8365,
      " совсем": 8366,
      " играть": 8367,
      " нидер": 8368,
      " земли": 8369,
      " общественного": 8370,
      " выпуск": 8371,
      "ack": 8372,
      " отмечают": 8373,
      " нему": 8374,
      " электри": 8375,
      " взгля": 8376,
      " теракта": 8377,
      " самые": 8378,
      " agence": 8379,
      " нелега": 8380,
      " главных": 8381,
      " политической": 8382,
      " обама": 8383,
      " грозит": 8384,
      " штате": 8385,
      " забро": 8386,
      " таджи": 8387,
      " военнослужащих": 8388,
      "надзо": 8389,
      " экспо": 8390,
      " se": 8391,
      " настро": 8392,
      " иван": 8393,
      " противоре": 8394,
      " подозрению": 8395,
      " мосгор": 8396,
      "риа": 8397,
      "вой.": 8398,
      " цели": 8399,
      " станда": 8400,
      " трудо": 8401,
      " архите": 8402,
      "зил": 8403,
      " издатель": 8404,
      " высокопостав": 8405,
      " учетом": 8406,
      " сайта": 8407,
      " сизо": 8408,
      " квартиры": 8409,
      " импо": 8410,
      "та\"": 8411,
      " гумани": 8412,
      " позицию": 8413,
      "0,": 8414,
      " подсуди": 8415,
      "ссив": 8416,
      " заседание": 8417,
      " сва": 8418,
      " сюжет": 8419,
      " отец": 8420,
      " нт": 8421,
      "гу,": 8422,
      " недав": 8423,
      "ваний": 8424,
      " форвард": 8425,
      " вечер": 8426,
      "рас": 8427,
      "ждений": 8428,
      " развер": 8429,
      "б.": 8430,
      "сия": 8431,
      " провока": 8432,
      " нуж": 8433,
      "рных": 8434,
      " прис": 8435,
      " рт": 8436,
      " нанес": 8437,
      " превышает": 8438,
      " вяче": 8439,
      " предоставить": 8440,
      "ственный": 8441,
      " сотни": 8442,
      " прокурор": 8443,
      "»),": 8444,
      " долларов.\n": 8445,
      "кали": 8446,
      " ракета": 8447,
      " преследов": 8448,
      "ца.": 8449,
      " изданию": 8450,
      " подробности": 8451,
      " фотографии": 8452,
      "рова,": 8453,
      " удовлетво": 8454,
      "монстри": 8455,
      "бург": 8456,
      " самолеты": 8457,
      " he": 8458,
      "нике": 8459,
      " ходатай": 8460,
      " подвод": 8461,
      "екре": 8462,
      " \"з": 8463,
      "мули": 8464,
      " дета": 8465,
      " государства.": 8466,
      " вов": 8467,
      "лось.": 8468,
      " вопросу": 8469,
      " оформ": 8470,
      "лась,": 8471,
      " официального": 8472,
      " возобнови": 8473,
      "ради": 8474,
      " февраля.": 8475,
      " опубликовано": 8476,
      " но,": 8477,
      "ry": 8478,
      "дает": 8479,
      " опроверг": 8480,
      " донецкой": 8481,
      " кандидатов": 8482,
      " ом": 8483,
      " концу": 8484,
      "тических": 8485,
      " площадью": 8486,
      "тка": 8487,
      " «ислам": 8488,
      " сожа": 8489,
      " гран": 8490,
      " сен": 8491,
      "действи": 8492,
      " подозреваемых": 8493,
      "вказ": 8494,
      " перспекти": 8495,
      " слуш": 8496,
      " совещ": 8497,
      " полуфина": 8498,
      " говорил": 8499,
      " самоу": 8500,
      " ставки": 8501,
      "шенной": 8502,
      " произошедшего": 8503,
      "емым": 8504,
      " валю": 8505,
      " ссыла": 8506,
      " основных": 8507,
      " «са": 8508,
      " муль": 8509,
      "жная": 8510,
      " кури": 8511,
      "мов.": 8512,
      " «если": 8513,
      " деше": 8514,
      " выяв": 8515,
      "th": 8516,
      " полета": 8517,
      "agram": 8518,
      " состоялся": 8519,
      " последова": 8520,
      " московском": 8521,
      " обычно": 8522,
      " попытки": 8523,
      " привести": 8524,
      " подрост": 8525,
      " невозможно": 8526,
      " борьбу": 8527,
      " чита": 8528,
      " стороны,": 8529,
      " направля": 8530,
      "гия": 8531,
      " получат": 8532,
      " историю": 8533,
      " вспо": 8534,
      " публикации": 8535,
      "ллу": 8536,
      " тура": 8537,
      "тельности": 8538,
      " причин": 8539,
      " подготовке": 8540,
      "емся": 8541,
      " системе": 8542,
      "реаги": 8543,
      "щает": 8544,
      " картина": 8545,
      " транс": 8546,
      "fi": 8547,
      " финала": 8548,
      " инициатив": 8549,
      " сведениям": 8550,
      " было.": 8551,
      " ex": 8552,
      "благо": 8553,
      "локомо": 8554,
      " отмет": 8555,
      " продемонстри": 8556,
      " &": 8557,
      "вершенно": 8558,
      " пой": 8559,
      " затра": 8560,
      " остались": 8561,
      " чаще": 8562,
      "da": 8563,
      " самопро": 8564,
      "жидан": 8565,
      " правления": 8566,
      " нет,": 8567,
      " разно": 8568,
      " 600": 8569,
      " расстоя": 8570,
      " беспилот": 8571,
      "мов,": 8572,
      " борис": 8573,
      " госпитализи": 8574,
      " вину": 8575,
      " ус": 8576,
      " 8,": 8577,
      " москве,": 8578,
      " москвы.": 8579,
      "ствова": 8580,
      " хор": 8581,
      " огня": 8582,
      " состава": 8583,
      "честву": 8584,
      "валь": 8585,
      " instagram": 8586,
      "ционер": 8587,
      " ликвиди": 8588,
      " претенден": 8589,
      " перено": 8590,
      "ne": 8591,
      "рыва": 8592,
      "строитель": 8593,
      " пожара": 8594,
      " что-то": 8595,
      " зоне": 8596,
      " регулярно": 8597,
      "понен": 8598,
      "o.": 8599,
      " здании": 8600,
      " мария": 8601,
      " грузови": 8602,
      "ight": 8603,
      " расходов": 8604,
      "лено,": 8605,
      " стив": 8606,
      " правда,": 8607,
      "серва": 8608,
      " «ба": 8609,
      " верх": 8610,
      " третьего": 8611,
      " преступлений": 8612,
      " организаций": 8613,
      " отсутствие": 8614,
      "ста.": 8615,
      " швед": 8616,
      " услов": 8617,
      " отреаги": 8618,
      "\")": 8619,
      " сосед": 8620,
      "-5": 8621,
      " afp.": 8622,
      " прекратить": 8623,
      " нес": 8624,
      "терна": 8625,
      " фондо": 8626,
      " приро": 8627,
      " 1999": 8628,
      " интересы": 8629,
      "тную": 8630,
      " россиянин": 8631,
      " pro": 8632,
      "ip": 8633,
      "тори": 8634,
      "товой": 8635,
      "желе": 8636,
      " фигури": 8637,
      " точно": 8638,
      " впере": 8639,
      " раун": 8640,
      " довольно": 8641,
      "ник.": 8642,
      "дино": 8643,
      " причина": 8644,
      " геор": 8645,
      " поля": 8646,
      " секун": 8647,
      "виру": 8648,
      " вдо": 8649,
      " больницы": 8650,
      " заключи": 8651,
      "эт": 8652,
      " моро": 8653,
      " аукци": 8654,
      "лы,": 8655,
      " игре": 8656,
      " девушка": 8657,
      " кандидата": 8658,
      " имена": 8659,
      " связь": 8660,
      " дональд": 8661,
      " револю": 8662,
      " аварий": 8663,
      " украину": 8664,
      " сборную": 8665,
      " испытания": 8666,
      " отдыха": 8667,
      " уточнил,": 8668,
      "дорков": 8669,
      " финансовых": 8670,
      "ит": 8671,
      " большое": 8672,
      " \"еди": 8673,
      " ирака": 8674,
      "пом": 8675,
      " недостаточ": 8676,
      " неожидан": 8677,
      " протоко": 8678,
      " ислам": 8679,
      " города.": 8680,
      " острова": 8681,
      " избра": 8682,
      "лиза": 8683,
      " проектов": 8684,
      " девяти": 8685,
      " гуманитар": 8686,
      "рованные": 8687,
      "ковых": 8688,
      "12": 8689,
      " одному": 8690,
      " москвы,": 8691,
      " назначения": 8692,
      " третье": 8693,
      " отметили": 8694,
      "vi": 8695,
      " банкро": 8696,
      " полно": 8697,
      "тная": 8698,
      "летряс": 8699,
      " тренера": 8700,
      " un": 8701,
      " поражения": 8702,
      " цело": 8703,
      "лень": 8704,
      " откло": 8705,
      "нав": 8706,
      "са\"": 8707,
      " поправки": 8708,
      "енных": 8709,
      " вар": 8710,
      " заниматься": 8711,
      "-летней": 8712,
      "меня": 8713,
      "градской": 8714,
      " самопровозгла": 8715,
      " стране.": 8716,
      " отклю": 8717,
      "анные": 8718,
      " футболист": 8719,
      "лей,": 8720,
      " лучшим": 8721,
      " лагер": 8722,
      " sh": 8723,
      "стве,": 8724,
      " опаса": 8725,
      " атом": 8726,
      " требует": 8727,
      " коммуни": 8728,
      "т\"": 8729,
      " землетряс": 8730,
      "оном": 8731,
      "шими": 8732,
      " кле": 8733,
      " youtube": 8734,
      " питер": 8735,
      " оказ": 8736,
      " корпорации": 8737,
      " договора": 8738,
      " ходорков": 8739,
      "же,": 8740,
      " краснояр": 8741,
      "сило": 8742,
      " граждане": 8743,
      "йнер": 8744,
      " аген": 8745,
      "эта": 8746,
      "ляет": 8747,
      " применя": 8748,
      " добавля": 8749,
      " видеоза": 8750,
      " дополнительные": 8751,
      "сам": 8752,
      " ru": 8753,
      "che": 8754,
      "краин": 8755,
      "!»": 8756,
      " встречу": 8757,
      " ирана": 8758,
      " начнется": 8759,
      "щаться": 8760,
      " витали": 8761,
      " военнослужащи": 8762,
      " тихо": 8763,
      "eing": 8764,
      "di": 8765,
      " чехи": 8766,
      " приступи": 8767,
      "стской": 8768,
      "вающих": 8769,
      " рассмотрение": 8770,
      " посольства": 8771,
      " устройства": 8772,
      " продук": 8773,
      "ни,": 8774,
      " продукции": 8775,
      " священ": 8776,
      "два": 8777,
      " ува": 8778,
      " медиа": 8779,
      " преж": 8780,
      " корот": 8781,
      " соответствующее": 8782,
      " новосибир": 8783,
      " показания": 8784,
      "валифици": 8785,
      "шка": 8786,
      "зей": 8787,
      "сти.": 8788,
      "ана,": 8789,
      " лей": 8790,
      " буш": 8791,
      " дали": 8792,
      " боепри": 8793,
      " доходов": 8794,
      " анонси": 8795,
      " онлайн-": 8796,
      " 1/": 8797,
      " разве": 8798,
      " рыно": 8799,
      " возобнов": 8800,
      " вт": 8801,
      " большую": 8802,
      " 44": 8803,
      " решению": 8804,
      " церемонии": 8805,
      "nt": 8806,
      " штур": 8807,
      " планирова": 8808,
      "казывать": 8809,
      " никак": 8810,
      " представителями": 8811,
      " прокуратуры": 8812,
      " подчи": 8813,
      "хождения": 8814,
      "анджеле": 8815,
      "ом": 8816,
      "ъек": 8817,
      " террористов": 8818,
      "зой": 8819,
      " «от": 8820,
      " кост": 8821,
      "челси": 8822,
      " чиновников": 8823,
      " фла": 8824,
      " хран": 8825,
      "-е": 8826,
      " самостоятельно": 8827,
      "дал": 8828,
      " разработа": 8829,
      "с-анджеле": 8830,
      "шал": 8831,
      " чар": 8832,
      "-19": 8833,
      " мур": 8834,
      " правам": 8835,
      "ру»": 8836,
      " жу": 8837,
      " продать": 8838,
      " версия": 8839,
      " оао": 8840,
      " края": 8841,
      " поколения": 8842,
      "вела": 8843,
      " отрав": 8844,
      " разы": 8845,
      " правительству": 8846,
      " доход": 8847,
      " джек": 8848,
      " bloom": 8849,
      " препара": 8850,
      " изна": 8851,
      " ники": 8852,
      "рованный": 8853,
      "шет": 8854,
      " предусматривает": 8855,
      " (3": 8856,
      " воспи": 8857,
      " отношению": 8858,
      " бел": 8859,
      " профи": 8860,
      "сы,": 8861,
      " ингуш": 8862,
      "хин": 8863,
      " пропусти": 8864,
      " пришел": 8865,
      " поставок": 8866,
      " проходят": 8867,
      " крае": 8868,
      " необходимость": 8869,
      " ислами": 8870,
      " \"ведомости": 8871,
      " решением": 8872,
      " польши": 8873,
      " границу": 8874,
      "говой": 8875,
      " «п": 8876,
      " португа": 8877,
      " здравоохранения": 8878,
      "раздо": 8879,
      "вф": 8880,
      " консуль": 8881,
      "ева.": 8882,
      " пти": 8883,
      " сотрудничества": 8884,
      " юго-восто": 8885,
      " «зени": 8886,
      " грана": 8887,
      "ale": 8888,
      " четверо": 8889,
      "щик": 8890,
      " различные": 8891,
      " reuters": 8892,
      "кина": 8893,
      " сель": 8894,
      " голов": 8895,
      " республике": 8896,
      " екатерин": 8897,
      " списка": 8898,
      " меньшей": 8899,
      "долго": 8900,
      " елена": 8901,
      " давление": 8902,
      " ведомства.": 8903,
      "рованной": 8904,
      " класси": 8905,
      " привлечь": 8906,
      " пересмо": 8907,
      " испы": 8908,
      " организаторы": 8909,
      " артист": 8910,
      "енти": 8911,
      "сколько": 8912,
      " (у": 8913,
      "золо": 8914,
      " bloomberg": 8915,
      "контро": 8916,
      " лидеры": 8917,
      " временно": 8918,
      "дд": 8919,
      " контроля": 8920,
      " подверг": 8921,
      " зависимости": 8922,
      " выступая": 8923,
      " сухо": 8924,
      " команде": 8925,
      " документов": 8926,
      " возгора": 8927,
      " глаза": 8928,
      " воспользо": 8929,
      " лицензи": 8930,
      " boeing": 8931,
      "мато": 8932,
      " разго": 8933,
      "кам,": 8934,
      "теля.": 8935,
      " саха": 8936,
      "гу.": 8937,
      " лондоне": 8938,
      "стопо": 8939,
      " точ": 8940,
      "виду": 8941,
      " протесту": 8942,
      " раст": 8943,
      " эми": 8944,
      " покинул": 8945,
      " боксер": 8946,
      "тельность": 8947,
      " th": 8948,
      "ld": 8949,
      " оборон": 8950,
      " присоедини": 8951,
      " фаль": 8952,
      " (около": 8953,
      "лым": 8954,
      " комментируя": 8955,
      " учреждения": 8956,
      " бай": 8957,
      "гов.": 8958,
      " армей": 8959,
      " 43": 8960,
      " января.": 8961,
      " тепло": 8962,
      " конгресс": 8963,
      " триллиона": 8964,
      "ве.": 8965,
      " яр": 8966,
      " которыми": 8967,
      " «интерфакс».": 8968,
      " хоккеи": 8969,
      " проспе": 8970,
      " лау": 8971,
      " эксперт": 8972,
      " городах": 8973,
      " подчеркива": 8974,
      " стерлин": 8975,
      " безу": 8976,
      " россии\"": 8977,
      " соцсет": 8978,
      " люди,": 8979,
      " самое": 8980,
      " максим": 8981,
      " 47": 8982,
      "щением": 8983,
      " мака": 8984,
      " льго": 8985,
      "шан": 8986,
      " штаба": 8987,
      " другого": 8988,
      " обли": 8989,
      " пытается": 8990,
      " предлагает": 8991,
      "ax": 8992,
      " российское": 8993,
      " числен": 8994,
      "лась.": 8995,
      " размещен": 8996,
      "жить": 8997,
      " исчез": 8998,
      " гораздо": 8999,
      " окончания": 9000,
      " «роснеф": 9001,
      " появилось": 9002,
      "нета": 9003,
      " be": 9004,
      "\"),": 9005,
      " регули": 9006,
      " твор": 9007,
      " трибу": 9008,
      " повышение": 9009,
      "рье": 9010,
      " 41": 9011,
      " покры": 9012,
      " мадри": 9013,
      "альных": 9014,
      " нападающий": 9015,
      "честер": 9016,
      " совершенно": 9017,
      " непро": 9018,
      " двор": 9019,
      " десятки": 9020,
      "зен": 9021,
      "эроф": 9022,
      "дела": 9023,
      " вмс": 9024,
      "жется": 9025,
      " guard": 9026,
      " основан": 9027,
      " выступили": 9028,
      "ченный": 9029,
      "жают": 9030,
      "пелля": 9031,
      " марти": 9032,
      " сотрудниками": 9033,
      " nas": 9034,
      " журнала": 9035,
      " заключенных": 9036,
      " дальше": 9037,
      "o,": 9038,
      " чт": 9039,
      " принес": 9040,
      " нидерлан": 9041,
      " интернете": 9042,
      ":3": 9043,
      " смени": 9044,
      " поддержке": 9045,
      " санкт-петербурге": 9046,
      " европейского": 9047,
      " переста": 9048,
      " 250": 9049,
      " экологи": 9050,
      " индии": 9051,
      " валерий": 9052,
      "дю": 9053,
      " автоматиче": 9054,
      " результатам": 9055,
      "дали": 9056,
      " ас": 9057,
      " статус": 9058,
      " канала": 9059,
      " каждого": 9060,
      " 49": 9061,
      " \"это": 9062,
      " обстанов": 9063,
      " \"са": 9064,
      " поступ": 9065,
      " госде": 9066,
      " настав": 9067,
      "тировать": 9068,
      " взять": 9069,
      "тели,": 9070,
      "интерфаксу": 9071,
      " предмет": 9072,
      " guardian": 9073,
      " живу": 9074,
      " тео": 9075,
      " событи": 9076,
      " службу": 9077,
      " карьеру": 9078,
      "терату": 9079,
      " кафе": 9080,
      "ствовала": 9081,
      "ложить": 9082,
      " проверку": 9083,
      " пребы": 9084,
      " назад.": 9085,
      " попытке": 9086,
      " нац": 9087,
      " компаний,": 9088,
      " некоторое": 9089,
      " пытаются": 9090,
      "споко": 9091,
      " times.": 9092,
      " молодых": 9093,
      "рение": 9094,
      " бин": 9095,
      "ленно": 9096,
      " запись": 9097,
      "жом": 9098,
      " апелля": 9099,
      " хар": 9100,
      "береж": 9101,
      " кора": 9102,
      " подели": 9103,
      "ляли": 9104,
      " полтора": 9105,
      " долю": 9106,
      " освобожден": 9107,
      " патриар": 9108,
      "стрен": 9109,
      " экономической": 9110,
      "вастопо": 9111,
      "лей.": 9112,
      "y,": 9113,
      " «то": 9114,
      "y.": 9115,
      " куп": 9116,
      " жан": 9117,
      " полков": 9118,
      " пожало": 9119,
      " iphone": 9120,
      " могу": 9121,
      " анатолий": 9122,
      "довали": 9123,
      " мира,": 9124,
      "-7": 9125,
      "п,": 9126,
      " татья": 9127,
      " цене": 9128,
      "\").": 9129,
      " вес": 9130,
      " рейтинге": 9131,
      "дим": 9132,
      " православ": 9133,
      " владимиром": 9134,
      " спекта": 9135,
      "ве,": 9136,
      " гувд": 9137,
      " событий": 9138,
      " обращение": 9139,
      " зао": 9140,
      " большого": 9141,
      " звезд": 9142,
      " несовершенно": 9143,
      "ета.ru": 9144,
      " этапе": 9145,
      " преодо": 9146,
      " пропаган": 9147,
      " решила": 9148,
      " регионах": 9149,
      "мая": 9150,
      " действовать": 9151,
      " актриса": 9152,
      "эс": 9153,
      "ющийся": 9154,
      " мужчины": 9155,
      " визита": 9156,
      " казахстана": 9157,
      " журнале": 9158,
      " проводится": 9159,
      "барсело": 9160,
      " несовершеннолет": 9161,
      " последнего": 9162,
      "ron": 9163,
      " немного": 9164,
      "прф": 9165,
      "лежа": 9166,
      "вело": 9167,
      " поставля": 9168,
      " переи": 9169,
      " \"си": 9170,
      "ения.": 9171,
      "-таки": 9172,
      " ответил": 9173,
      " \"ми": 9174,
      " телефо": 9175,
      " \"новости\"": 9176,
      " эль": 9177,
      "для": 9178,
      "-15": 9179,
      " защите": 9180,
      " вторы": 9181,
      " жена": 9182,
      "ix": 9183,
      " завод": 9184,
      "мей": 9185,
      " прош": 9186,
      " открыл": 9187,
      " подготовки": 9188,
      "кера": 9189,
      "чек": 9190,
      " сор": 9191,
      " ночью": 9192,
      "-кана": 9193,
      "союз": 9194,
      " верховный": 9195,
      " брига": 9196,
      " получать": 9197,
      " баск": 9198,
      " тюрьмы": 9199,
      " третьей": 9200,
      " результат": 9201,
      " поражение": 9202,
      " сделали": 9203,
      " бизнеса": 9204,
      " викто": 9205,
      " такую": 9206,
      "ленным": 9207,
      ":30": 9208,
      "зви": 9209,
      " некоторым": 9210,
      " средней": 9211,
      " довери": 9212,
      " готова": 9213,
      "юри": 9214,
      " мужчин": 9215,
      "летел": 9216,
      " сыграет": 9217,
      " био": 9218,
      " пояснил,": 9219,
      " падение": 9220,
      "a)": 9221,
      "чно-": 9222,
      " массовых": 9223,
      "шев": 9224,
      " «ми": 9225,
      " поря": 9226,
      " концеп": 9227,
      " гео": 9228,
      " лиц,": 9229,
      "ст,": 9230,
      " размести": 9231,
      " министров": 9232,
      " жертвами": 9233,
      " каким": 9234,
      " 46": 9235,
      " пога": 9236,
      " куро": 9237,
      "фто": 9238,
      " факто": 9239,
      " опти": 9240,
      " заявлял,": 9241,
      " выступал": 9242,
      " вален": 9243,
      " би-би-си": 9244,
      " генна": 9245,
      " координа": 9246,
      " лабора": 9247,
      " достигну": 9248,
      " сно": 9249,
      " офице": 9250,
      " боя": 9251,
      " калинин": 9252,
      " to": 9253,
      "кретаря": 9254,
      "сомо": 9255,
      " насили": 9256,
      "ровой": 9257,
      "мати": 9258,
      " остался": 9259,
      " убит": 9260,
      " «вконтакте": 9261,
      " инжен": 9262,
      " комна": 9263,
      " мона": 9264,
      "сти,": 9265,
      " горя": 9266,
      " «м": 9267,
      " консу": 9268,
      " йо": 9269,
      " разрабаты": 9270,
      " владелец": 9271,
      " машина": 9272,
      " вд": 9273,
      " составили": 9274,
      " говорят": 9275,
      " отбы": 9276,
      "льский": 9277,
      " счету": 9278,
      " ока": 9279,
      " литерату": 9280,
      " человек.\n": 9281,
      " гроз": 9282,
      " следственный": 9283,
      " политика": 9284,
      " специально": 9285,
      "рити": 9286,
      " сообщила,": 9287,
      " обжа": 9288,
      " \"спарта": 9289,
      "ского.": 9290,
      " президента,": 9291,
      " доходы": 9292,
      "эр": 9293,
      " нарушении": 9294,
      " джордж": 9295,
      " избежать": 9296,
      " количества": 9297,
      "еть": 9298,
      "чин": 9299,
      "сци": 9300,
      " экстрен": 9301,
      " входи": 9302,
      " выросли": 9303,
      " десятков": 9304,
      " четверть": 9305,
      "вым,": 9306,
      " средни": 9307,
      " луж": 9308,
      "мали": 9309,
      "ционная": 9310,
      " закуп": 9311,
      " прися": 9312,
      " примет": 9313,
      "ust": 9314,
      "главы": 9315,
      "роли": 9316,
      " сторонников": 9317,
      " купить": 9318,
      " кпрф": 9319,
      " версию": 9320,
      " укреп": 9321,
      "ках,": 9322,
      " \"бе": 9323,
      " брать": 9324,
      "ьев": 9325,
      "произ": 9326,
      "ib": 9327,
      " отношение": 9328,
      " табли": 9329,
      "экономразви": 9330,
      "шают": 9331,
      "емая": 9332,
      " солдат": 9333,
      " терактов": 9334,
      "з.": 9335,
      "лева": 9336,
      " поводом": 9337,
      " подоро": 9338,
      " нарушений": 9339,
      "ine": 9340,
      " исте": 9341,
      "nal": 9342,
      "вы.": 9343,
      " «из": 9344,
      " иль": 9345,
      "бре": 9346,
      " минэкономразви": 9347,
      " демонстри": 9348,
      " цвет": 9349,
      "old": 9350,
      "ках.": 9351,
      " сезон": 9352,
      " сби": 9353,
      " проведении": 9354,
      " экстра": 9355,
      " общественных": 9356,
      " отпусти": 9357,
      " редакцию": 9358,
      "ритет": 9359,
      " полет": 9360,
      " «об": 9361,
      "техни": 9362,
      " корпорация": 9363,
      " властями": 9364,
      "берг": 9365,
      " полагают,": 9366,
      "вав": 9367,
      " юрия": 9368,
      "вым.": 9369,
      "ц,": 9370,
      " история": 9371,
      " занимал": 9372,
      " регуля": 9373,
      "доз": 9374,
      "ствий": 9375,
      " конкурса": 9376,
      " принятия": 9377,
      " дома,": 9378,
      " порядке": 9379,
      " своему": 9380,
      " корабля": 9381,
      " защитник": 9382,
      "единя": 9383,
      " разрешения": 9384,
      " wind": 9385,
      " невы": 9386,
      " уточняет": 9387,
      " румы": 9388,
      " режиссера": 9389,
      " on": 9390,
      "куда": 9391,
      " подклю": 9392,
      " оскорб": 9393,
      "orld": 9394,
      " самоле": 9395,
      " очков": 9396,
      " операцию": 9397,
      " op": 9398,
      "ll": 9399,
      "aw": 9400,
      " «ю": 9401,
      " средняя": 9402,
      "кель": 9403,
      "org": 9404,
      " путем": 9405,
      " республики.": 9406,
      " вод": 9407,
      "вченко": 9408,
      "силия": 9409,
      " никакого": 9410,
      " ранения.": 9411,
      "the": 9412,
      "доне": 9413,
      " влияние": 9414,
      " перекры": 9415,
      " «си": 9416,
      " таи": 9417,
      " категории": 9418,
      " конференции": 9419,
      " ниг": 9420,
      " тбили": 9421,
      " сложно": 9422,
      " альтерна": 9423,
      "нито": 9424,
      " выросла": 9425,
      " побереж": 9426,
      "тони": 9427,
      "гера": 9428,
      " условий": 9429,
      " электроэнер": 9430,
      "ung": 9431,
      "-кае": 9432,
      " центральной": 9433,
      "ck": 9434,
      " сократить": 9435,
      "шви": 9436,
      " возможных": 9437,
      " обратились": 9438,
      " активисты": 9439,
      "щается": 9440,
      "влека": 9441,
      " следствия": 9442,
      " капитан": 9443,
      " набрал": 9444,
      " \"во": 9445,
      " последней": 9446,
      " 195": 9447,
      " сообщается.": 9448,
      " устройство": 9449,
      " ребено": 9450,
      " следующем": 9451,
      " обращения": 9452,
      " (d": 9453,
      " оказалось": 9454,
      " приостанови": 9455,
      " бур": 9456,
      " молодой": 9457,
      " службе": 9458,
      " цик": 9459,
      "твори": 9460,
      " момен": 9461,
      "кур": 9462,
      " древ": 9463,
      "iz": 9464,
      " севастопо": 9465,
      "вому": 9466,
      " безопасности.": 9467,
      " собо": 9468,
      " церков": 9469,
      "ской,": 9470,
      " местной": 9471,
      " столь": 9472,
      " прибыль": 9473,
      " останется": 9474,
      " григо": 9475,
      " вете": 9476,
      " поиска": 9477,
      " продви": 9478,
      " фами": 9479,
      " «вы": 9480,
      " посчита": 9481,
      " природ": 9482,
      " предприниматель": 9483,
      " полномочий": 9484,
      " розыск": 9485,
      " son": 9486,
      " первен": 9487,
      "тся.": 9488,
      " станут": 9489,
      " развитию": 9490,
      " академи": 9491,
      "цы.": 9492,
      " полном": 9493,
      " кримина": 9494,
      " \"ин": 9495,
      " этапа": 9496,
      "екрета": 9497,
      " частности": 9498,
      " блок": 9499,
      " опе": 9500,
      " вертолета": 9501,
      "лло": 9502,
      "ств,": 9503,
      " утверждает": 9504,
      " 9,": 9505,
      " случаев": 9506,
      " судом": 9507,
      " бизнесмена": 9508,
      " гостей": 9509,
      "ба,": 9510,
      " концерт": 9511,
      " огранич": 9512,
      "потреб": 9513,
      " вклад": 9514,
      " кари": 9515,
[...]
